<unk>	0
<pad>	0
<s>	0
</s>	0
<END>	0
关键词:	0
诗词:	0
EO	-0
▁[	-1
EOS	-2
你的	-3
我的	-4
我们	-5
没有	-6
一个	-7
爱情	-8
自己	-9
什么	-10
让我	-11
世界	-12
幸福	-13
一起	-14
爱的	-15
是我	-16
永远	-17
不会	-18
快乐	-19
知道	-20
回忆	-21
为你	-22
不要	-23
怎么	-24
我不	-25
爱你	-26
时间	-27
梦想	-28
寂寞	-29
还是	-30
美丽	-31
那么	-32
思念	-33
如果	-34
一切	-35
着你	-36
是你	-37
心里	-38
所有	-39
可以	-40
多少	-41
不能	-42
生活	-43
曾经	-44
这样	-45
已经	-46
时候	-47
在我	-48
的心	-49
不是	-50
一天	-51
真的	-52
心中	-53
你说	-54
就是	-55
感觉	-56
不再	-57
眼泪	-58
一个人	-59
让你	-60
现在	-61
你是	-62
未来	-63
温柔	-64
离开	-65
太多	-66
给我	-67
我的心	-68
一点	-69
一生	-70
的人	-71
只是	-72
一次	-73
希望	-74
最后	-75
生命	-76
天空	-77
身边	-78
岁月	-79
就算	-80
也许	-81
阳光	-82
忘记	-83
我会	-84
朋友	-85
一样	-86
我要	-87
不到	-88
无法	-89
我想	-90
等待	-91
有你	-92
和你	-93
因为	-94
人生	-95
在这	-96
过去	-97
一直	-98
在你	-99
的爱	-100
相信	-101
也不	-102
总是	-103
温暖	-104
自由	-105
给你	-106
微笑	-107
为了	-108
孤单	-109
青春	-110
记忆	-111
开始	-112
为何	-113
需要	-114
拥抱	-115
慢慢	-116
还有	-117
感情	-118
过的	-119
着我	-120
喜欢	-121
不想	-122
明天	-123
我是	-124
都是	-125
只有	-126
你我	-127
人的	-128
就像	-129
那些	-130
时光	-131
孤独	-132
留下	-133
记得	-134
只要	-135
明白	-136
故事	-137
我们的	-138
想起	-139
失去	-140
是否	-141
眼睛	-142
其实	-143
变成	-144
我也	-145
心的	-146
今天	-147
了你	-148
分手	-149
想要	-150
依然	-151
风雨	-152
以后	-153
承诺	-154
爱我	-155
把你	-156
那个	-157
我在	-158
改变	-159
放弃	-160
不知	-161
▁爱情	-162
为什么	-163
甜蜜	-164
地方	-165
的时候	-166
都不	-167
妈妈	-168
你不	-169
轻轻	-170
一种	-171
oh	-172
的我	-173
忘了	-174
勇敢	-175
告诉	-176
想你	-177
不见	-178
能够	-179
对我	-180
为我	-181
发现	-182
如何	-183
沉默	-184
彼此	-185
美好	-186
每个	-187
看见	-188
梦里	-189
不管	-190
继续	-191
努力	-192
你在	-193
这个	-194
美丽的	-195
一定	-196
多么	-197
还在	-198
如此	-199
拥有	-200
啦啦	-201
期待	-202
哪里	-203
笑容	-204
面对	-205
从前	-206
一片	-207
中的	-208
每天	-209
看到	-210
原来	-211
美的	-212
真心	-213
呼吸	-214
太阳	-215
不了	-216
在一起	-217
回头	-218
泪水	-219
只能	-220
如今	-221
是谁	-222
付出	-223
伤心	-224
爱上	-225
风吹	-226
▁y	-227
今生	-228
草原	-229
日子	-230
选择	-231
一场	-232
的路	-233
▁m	-234
瞬间	-235
方向	-236
不停	-237
走过	-238
愿意	-239
远方	-240
▁b	-241
的你	-242
城市	-243
害怕	-244
▁l	-245
那一	-246
虽然	-247
难道	-248
难过	-249
我心	-250
这一	-251
回到	-252
你的心	-253
勇气	-254
姑娘	-255
你会	-256
珍惜	-257
幸福的	-258
感动	-259
对你	-260
悲伤	-261
会有	-262
习惯	-263
再见	-264
到底	-265
这么	-266
想念	-267
了我	-268
坚强	-269
ou	-270
誓言	-271
独自	-272
变得	-273
只想	-274
黑夜	-275
你要	-276
牵挂	-277
结果	-278
的情	-279
与你	-280
从此	-281
音乐	-282
祝福	-283
浪漫	-284
把我	-285
无奈	-286
痛苦	-287
色的	-288
烦恼	-289
陪你	-290
声音	-291
天涯	-292
才能	-293
月亮	-294
he	-295
有多	-296
请你	-297
▁爱	-298
到了	-299
心情	-300
我就	-301
身旁	-302
应该	-303
ve	-304
觉得	-305
以为	-306
寻找	-307
的歌	-308
星星	-309
不在	-310
你却	-311
nd	-312
过了	-313
里的	-314
兄弟	-315
终于	-316
让我们	-317
一句	-318
所有的	-319
着你的	-320
从来	-321
哭泣	-322
▁w	-323
我的爱	-324
起来	-325
眼神	-326
▁t	-327
陪伴	-328
命运	-329
不住	-330
我知道	-331
开心	-332
别人	-333
有人	-334
上的	-335
出现	-336
怎样	-337
缘分	-338
你就	-339
我还	-340
得到	-341
不过	-342
伤害	-343
感受	-344
on	-345
这是	-346
in	-347
有些	-348
现实	-349
好好	-350
早已	-351
他们	-352
我爱你	-353
昨天	-354
所以	-355
注定	-356
之间	-357
一路	-358
▁s	-359
玫瑰	-360
和我	-361
在心	-362
默默	-363
无论	-364
花开	-365
灵魂	-366
后悔	-367
力量	-368
结局	-369
自己的	-370
相遇	-371
陪我	-372
简单	-373
情的	-374
让人	-375
中国	-376
首歌	-377
回家	-378
风景	-379
的夜	-380
月光	-381
你的爱	-382
看着	-383
往事	-384
不可	-385
下的	-386
翅膀	-387
男人	-388
辈子	-389
熟悉	-390
回来	-391
飞翔	-392
空气	-393
直到	-394
相爱	-395
by	-396
别再	-397
流浪	-398
等你	-399
我都	-400
存在	-401
所谓	-402
放手	-403
天堂	-404
每一	-405
遇见	-406
属于	-407
相思	-408
彩虹	-409
心碎	-410
春天	-411
静静	-412
我有	-413
全部	-414
理由	-415
不起	-416
模样	-417
成长	-418
我却	-419
长大	-420
不懂	-421
距离	-422
歌唱	-423
突然	-424
很多	-425
他的	-426
带着	-427
深深	-428
双手	-429
学会	-430
理想	-431
在我的	-432
在那	-433
一些	-434
爱过	-435
的梦	-436
渴望	-437
亲爱的	-438
只剩	-439
决定	-440
忧伤	-441
好像	-442
天地	-443
分离	-444
我说	-445
唯一	-446
两个	-447
那是	-448
孩子	-449
当初	-450
找到	-451
ea	-452
▁a	-453
画面	-454
遥远	-455
不必	-456
的地方	-457
恋爱	-458
被你	-459
渐渐	-460
就这样	-461
不出	-462
的脸	-463
双眼	-464
离别	-465
不得	-466
的话	-467
歌声	-468
一颗	-469
充满	-470
不清	-471
故乡	-472
情人	-473
可是	-474
你是否	-475
执着	-476
女人	-477
▁i	-478
不怕	-479
不够	-480
灿烂	-481
精彩	-482
不知道	-483
消失	-484
脚步	-485
坚持	-486
谁能	-487
千年	-488
心跳	-489
你也	-490
这里	-491
在你的	-492
伤悲	-493
你们	-494
转身	-495
分开	-496
我已	-497
流泪	-498
安慰	-499
怀念	-500
有点	-501
眼前	-502
身体	-503
遗憾	-504
的那	-505
了一	-506
最美的	-507
牵手	-508
爱情的	-509
电话	-510
梦中	-511
是我的	-512
心痛	-513
当我	-514
幻想	-515
▁you	-516
家乡	-517
蓝天	-518
aby	-519
在这里	-520
告诉我	-521
游戏	-522
看你	-523
新的	-524
路上	-525
▁d	-526
都会	-527
何时	-528
人间	-529
尽头	-530
的小	-531
有一天	-532
爱是	-533
陌生	-534
仿佛	-535
向前	-536
悄悄	-537
不用	-538
的是	-539
都在	-540
离去	-541
天天	-542
好的	-543
承受	-544
红尘	-545
你是我	-546
何必	-547
滋味	-548
实现	-549
还要	-550
笑脸	-551
忘掉	-552
燃烧	-553
不去	-554
走了	-555
不敢	-556
站在	-557
了解	-558
不变	-559
容易	-560
也是	-561
的世界	-562
▁n	-563
完美	-564
到你	-565
可能	-566
爸爸	-567
懂得	-568
绽放	-569
的风	-570
心中的	-571
就要	-572
一杯	-573
守候	-574
没有人	-575
是不是	-576
花儿	-577
都有	-578
遗忘	-579
然后	-580
夜里	-581
角落	-582
随风	-583
ay	-584
大地	-585
▁g	-586
一世	-587
多年	-588
不要再	-589
天边	-590
就会	-591
ha	-592
伤口	-593
也会	-594
一步	-595
世间	-596
清楚	-597
不开	-598
re	-599
或许	-600
▁oh	-601
来的	-602
end	-603
放开	-604
夜晚	-605
就让	-606
才会	-607
不同	-608
你的手	-609
旋律	-610
一年	-611
曾经的	-612
听见	-613
走到	-614
真爱	-615
再也	-616
伤痛	-617
停留	-618
就在	-619
味道	-620
永恒	-621
白云	-622
英雄	-623
不断	-624
之后	-625
下去	-626
徘徊	-627
你还	-628
骄傲	-629
多想	-630
安静	-631
原谅	-632
她的	-633
情歌	-634
夕阳	-635
疯狂	-636
我愿	-637
哪怕	-638
夏天	-639
ove	-640
咖啡	-641
一声	-642
黑暗	-643
再次	-644
说话	-645
缠绵	-646
找不到	-647
秘密	-648
跟你	-649
ow	-650
值得	-651
真情	-652
冬天	-653
好想	-654
伤痕	-655
模糊	-656
即使	-657
也要	-658
放下	-659
越来	-660
始终	-661
紧紧	-662
我们都	-663
这世界	-664
没人	-665
跟我	-666
接受	-667
奇迹	-668
重要	-669
再多	-670
闭上	-671
不如	-672
不愿	-673
里面	-674
每次	-675
靠近	-676
an	-677
ll	-678
越来越	-679
疲惫	-680
背影	-681
一秒	-682
偶尔	-683
在乎	-684
这种	-685
有个	-686
身影	-687
那天	-688
诺言	-689
的花	-690
关系	-691
的生活	-692
一辈子	-693
大的	-694
大家	-695
错过	-696
无所谓	-697
谁的	-698
你有	-699
我自己	-700
为爱	-701
爱的人	-702
当你	-703
感到	-704
看着你	-705
冷漠	-706
星光	-707
那样	-708
不曾	-709
匆匆	-710
茫茫	-711
天下	-712
不及	-713
一遍	-714
每一天	-715
你给	-716
名字	-717
小心	-718
结束	-719
失落	-720
着我的	-721
偷偷	-722
无限	-723
女孩	-724
打开	-725
我只	-726
的一	-727
到最后	-728
体会	-729
情愿	-730
相依	-731
的天	-732
对你的	-733
看看	-734
季节	-735
成了	-736
窗外	-737
来到	-738
望着	-739
只为	-740
受伤	-741
经过	-742
不会再	-743
依旧	-744
光芒	-745
童话	-746
带走	-747
出来	-748
心底	-749
爱你的	-750
▁c	-751
折磨	-752
感谢	-753
一段	-754
舞台	-755
大海	-756
此刻	-757
热情	-758
oo	-759
为谁	-760
我不想	-761
▁f	-762
风中	-763
的爱情	-764
今夜	-765
永不	-766
童年	-767
脆弱	-768
是你的	-769
地球	-770
ing	-771
在心里	-772
享受	-773
无悔	-774
意义	-775
节奏	-776
漫长	-777
不需要	-778
我最	-779
流星	-780
追逐	-781
唱着	-782
▁心	-783
事情	-784
假装	-785
用心	-786
了我的	-787
蝴蝶	-788
我真的	-789
传说	-790
你可	-791
约定	-792
诉说	-793
电影	-794
天使	-795
有时	-796
什么都	-797
借口	-798
目光	-799
一点点	-800
醒来	-801
闪烁	-802
任何	-803
分享	-804
表情	-805
情绪	-806
时代	-807
有一	-808
温暖的	-809
大声	-810
左右	-811
看不见	-812
告别	-813
怀抱	-814
容颜	-815
面前	-816
太多的	-817
你能	-818
守护	-819
人海	-820
时刻	-821
仍然	-822
这份	-823
迷失	-824
小小	-825
笑着	-826
随着	-827
还能	-828
机会	-829
相见	-830
怀疑	-831
宁愿	-832
过往	-833
全世界	-834
没法	-835
工作	-836
谎言	-837
爱得	-838
走进	-839
la	-840
平凡	-841
愿望	-842
有多少	-843
从未	-844
千万	-845
这样的	-846
我没有	-847
漂亮	-848
下来	-849
因为你	-850
每一个	-851
听到	-852
流淌	-853
谢谢	-854
经历	-855
有我	-856
担心	-857
春风	-858
有了	-859
等到	-860
自我	-861
照片	-862
逃避	-863
许多	-864
挽留	-865
冷的	-866
天长	-867
宇宙	-868
照亮	-869
思绪	-870
▁me	-871
这些	-872
耳边	-873
东西	-874
海角	-875
彷徨	-876
问题	-877
一切都	-878
怀里	-879
走在	-880
那里	-881
的泪	-882
自然	-883
年轻	-884
不该	-885
整个	-886
认真	-887
快乐的	-888
我们一起	-889
地久	-890
你的脸	-891
是什么	-892
爱到	-893
点点	-894
熟悉的	-895
善良	-896
化作	-897
等候	-898
秋天	-899
融化	-900
有谁	-901
难以	-902
对我说	-903
总会	-904
无人	-905
谁都	-906
脑海	-907
我已经	-908
▁love	-909
轮回	-910
那么多	-911
可惜	-912
美好的	-913
太过	-914
有你的	-915
至少	-916
你已	-917
唱歌	-918
依赖	-919
泪流	-920
ig	-921
肩膀	-922
是一	-923
转眼	-924
证明	-925
成为	-926
更加	-927
跟着	-928
想象	-929
内心	-930
前方	-931
挣扎	-932
旅行	-933
呼唤	-934
失败	-935
苦苦	-936
我一	-937
明明	-938
舍不得	-939
就能	-940
但是	-941
头发	-942
不爱	-943
关键	-944
天真	-945
落叶	-946
也有	-947
奔跑	-948
彻底	-949
的感觉	-950
才是	-951
妹妹	-952
轻易	-953
能不能	-954
一样的	-955
雪花	-956
来不及	-957
房间	-958
相伴	-959
不好	-960
你那	-961
我很	-962
留恋	-963
总有	-964
无情	-965
欢乐	-966
繁华	-967
不掉	-968
会不会	-969
对你说	-970
我和你	-971
信念	-972
我又	-973
沧桑	-974
哥哥	-975
有没有	-976
想到	-977
穿越	-978
芬芳	-979
更多	-980
自在	-981
起了	-982
还记得	-983
追求	-984
终点	-985
叫我	-986
的日子	-987
向往	-988
黄昏	-989
无声	-990
父母	-991
日夜	-992
igh	-993
特别	-994
me	-995
最初	-996
上了	-997
准备	-998
我的世界	-999
时的	-1000
欢笑	-1001
真实	-1002
委屈	-1003
眷恋	-1004
迷茫	-1005
背后	-1006
我用	-1007
全都	-1008
如果你	-1009
宝贝	-1010
安排	-1011
成功	-1012
信仰	-1013
之中	-1014
在哪里	-1015
一朵	-1016
不觉	-1017
盛开	-1018
就让我	-1019
我还是	-1020
影子	-1021
▁阳光	-1022
我不会	-1023
傻傻	-1024
留在	-1025
我爱	-1026
无尽	-1027
花香	-1028
不是我	-1029
只要你	-1030
让自己	-1031
人们	-1032
漂泊	-1033
只剩下	-1034
不下	-1035
忽然	-1036
好吗	-1037
依靠	-1038
无力	-1039
▁关键	-1040
▁关键词	-1041
▁baby	-1042
儿女	-1043
问我	-1044
憔悴	-1045
视线	-1046
多久	-1047
难忘	-1048
少年	-1049
回首	-1050
谁人	-1051
生命的	-1052
停止	-1053
天上	-1054
手机	-1055
无数	-1056
谁又	-1057
来了	-1058
几多	-1059
说出	-1060
祈祷	-1061
说你	-1062
啦啦啦啦	-1063
无聊	-1064
重新	-1065
可爱	-1066
不完	-1067
从不	-1068
情感	-1069
海洋	-1070
每个人	-1071
黎明	-1072
变成了	-1073
却又	-1074
两个人	-1075
在意	-1076
破碎	-1077
祖国	-1078
了心	-1079
倔强	-1080
千里	-1081
无助	-1082
让爱	-1083
星空	-1084
偏偏	-1085
回答	-1086
拒绝	-1087
欣赏	-1088
才发现	-1089
坎坷	-1090
淡淡	-1091
没有你	-1092
说我	-1093
夜空	-1094
的美	-1095
脸上	-1096
潇洒	-1097
的手	-1098
上天	-1099
最美	-1100
ar	-1101
你走	-1102
辉煌	-1103
中华	-1104
悠悠	-1105
一条	-1106
欺骗	-1107
几个	-1108
出了	-1109
期盼	-1110
绝望	-1111
穿过	-1112
辛苦	-1113
梦境	-1114
我把	-1115
欢喜	-1116
下了	-1117
最后的	-1118
你是我的	-1119
带我	-1120
满足	-1121
痕迹	-1122
颜色	-1123
or	-1124
鲜花	-1125
坚定	-1126
谁在	-1127
年的	-1128
一首	-1129
悲哀	-1130
母亲	-1131
天气	-1132
深处	-1133
解脱	-1134
虚伪	-1135
远去	-1136
我愿意	-1137
离开我	-1138
每一次	-1139
来来	-1140
还没	-1141
慢慢的	-1142
寂寞的	-1143
世上	-1144
满了	-1145
eah	-1146
我一个人	-1147
在我心里	-1148
你看	-1149
▁la	-1150
关心	-1151
温馨	-1152
的幸福	-1153
万里	-1154
后的	-1155
开了	-1156
清晨	-1157
深情	-1158
是个	-1159
老天	-1160
与我	-1161
怎能	-1162
最好	-1163
街头	-1164
说的	-1165
叹息	-1166
答案	-1167
在我身边	-1168
都要	-1169
我为你	-1170
脸庞	-1171
自信	-1172
满天	-1173
真正	-1174
相聚	-1175
只有你	-1176
的声音	-1177
足够	-1178
这首歌	-1179
样子	-1180
的温柔	-1181
既然	-1182
困难	-1183
人群	-1184
将我	-1185
还会	-1186
滴滴	-1187
失恋	-1188
关于	-1189
健康	-1190
失眠	-1191
实在	-1192
的好	-1193
失去了	-1194
同样	-1195
完全	-1196
绝对	-1197
忧愁	-1198
缘份	-1199
道理	-1200
换来	-1201
我怎么	-1202
霓虹	-1203
ry	-1204
依偎	-1205
在你身边	-1206
心灵	-1207
都说	-1208
爱人	-1209
▁my	-1210
的回忆	-1211
光阴	-1212
承认	-1213
枯萎	-1214
汗水	-1215
痴心	-1216
清醒	-1217
甚么	-1218
路口	-1219
孤寂	-1220
任性	-1221
走远	-1222
一只	-1223
爱上你	-1224
陪着你	-1225
伤心的	-1226
回味	-1227
短暂	-1228
baby	-1229
你说你	-1230
代替	-1231
微风	-1232
我只想	-1233
脾气	-1234
柔情	-1235
之前	-1236
永久	-1237
这段	-1238
相逢	-1239
心头	-1240
保护	-1241
不安	-1242
灯火	-1243
想着	-1244
无言	-1245
日记	-1246
眼里	-1247
旅途	-1248
相随	-1249
空间	-1250
年少	-1251
温柔的	-1252
不舍	-1253
人人	-1254
四季	-1255
心愿	-1256
爱恋	-1257
一下	-1258
神秘	-1259
的心情	-1260
创造	-1261
究竟	-1262
我想要	-1263
发生	-1264
蔓延	-1265
的天空	-1266
▁梦想	-1267
在梦里	-1268
相守	-1269
随便	-1270
有什么	-1271
年华	-1272
空虚	-1273
st	-1274
一张	-1275
并不	-1276
牵着	-1277
令我	-1278
得太	-1279
想过	-1280
对不起	-1281
的大	-1282
寻觅	-1283
明月	-1284
相恋	-1285
永远的	-1286
天亮	-1287
心上	-1288
残忍	-1289
那么的	-1290
盼望	-1291
不可以	-1292
该怎么	-1293
一阵	-1294
消息	-1295
说好	-1296
我才	-1297
记住	-1298
流水	-1299
清晰	-1300
遇到	-1301
最爱	-1302
苦涩	-1303
我可以	-1304
今晚	-1305
你让我	-1306
无边	-1307
▁h	-1308
身上	-1309
远走	-1310
梦的	-1311
点燃	-1312
我相信	-1313
▁u	-1314
像个	-1315
沉醉	-1316
尽情	-1317
胸膛	-1318
别离	-1319
落在	-1320
这一切	-1321
it	-1322
过来	-1323
激情	-1324
变的	-1325
共同	-1326
疲倦	-1327
眼中	-1328
下雨	-1329
留住	-1330
one	-1331
一人	-1332
夜的	-1333
快要	-1334
永远不	-1335
了你的	-1336
像是	-1337
心事	-1338
痴情	-1339
但愿	-1340
色彩	-1341
追寻	-1342
可是我	-1343
喜欢你	-1344
爱着你	-1345
的时间	-1346
忧郁	-1347
常常	-1348
过后	-1349
想法	-1350
有时候	-1351
我能	-1352
温度	-1353
释放	-1354
谁会	-1355
一定会	-1356
一滴	-1357
无怨	-1358
看不到	-1359
很久	-1360
来吧	-1361
不知不觉	-1362
随时	-1363
尘埃	-1364
胸口	-1365
告诉你	-1366
这一刻	-1367
对着	-1368
反复	-1369
风光	-1370
轻轻的	-1371
相拥	-1372
一瞬间	-1373
▁the	-1374
你又	-1375
也没有	-1376
有一种	-1377
的光	-1378
一丝	-1379
变化	-1380
到老	-1381
家园	-1382
晚上	-1383
点亮	-1384
没有你的	-1385
以前	-1386
▁回忆	-1387
这就是	-1388
你想	-1389
灯光	-1390
见面	-1391
背叛	-1392
不停的	-1393
难受	-1394
语言	-1395
忘不了	-1396
当作	-1397
看我	-1398
分钟	-1399
跳舞	-1400
伪装	-1401
我不能	-1402
一刻	-1403
原地	-1404
朦胧	-1405
冲动	-1406
▁思念	-1407
et	-1408
那时	-1409
我就是	-1410
好多	-1411
痛快	-1412
神奇	-1413
多少次	-1414
化成	-1415
的故事	-1416
把爱	-1417
的方向	-1418
将你	-1419
昨日	-1420
谁来	-1421
想你的	-1422
最好的	-1423
的梦想	-1424
一边	-1425
到处	-1426
那一天	-1427
一道	-1428
犹豫	-1429
前世	-1430
只会	-1431
摇摆	-1432
带你	-1433
愉快	-1434
的眼	-1435
夜色	-1436
过得	-1437
我们的爱	-1438
亲吻	-1439
平静	-1440
不回	-1441
默契	-1442
一口	-1443
活着	-1444
抬头	-1445
不离	-1446
变了	-1447
坐在	-1448
拼命	-1449
我的梦	-1450
一回	-1451
危险	-1452
热血	-1453
没了	-1454
我的手	-1455
花落	-1456
说过	-1457
阻挡	-1458
吉祥	-1459
是非	-1460
一定要	-1461
也不会	-1462
白的	-1463
这个世界	-1464
问候	-1465
颗心	-1466
天长地久	-1467
各自	-1468
度过	-1469
浮现	-1470
醉了	-1471
在心底	-1472
我不要	-1473
过去的	-1474
你的温柔	-1475
平安	-1476
或者	-1477
古老	-1478
一笑	-1479
花朵	-1480
风儿	-1481
气息	-1482
的雨	-1483
烟火	-1484
纠缠	-1485
这一生	-1486
意外	-1487
爱恨	-1488
不在乎	-1489
大雨	-1490
单纯	-1491
洒脱	-1492
辽阔	-1493
但我	-1494
向你	-1495
必须	-1496
旅程	-1497
时空	-1498
试着	-1499
是一种	-1500
叫做	-1501
珍贵	-1502
给我的	-1503
纪念	-1504
is	-1505
出发	-1506
失望	-1507
美梦	-1508
第一次	-1509
共你	-1510
土地	-1511
张开	-1512
我来	-1513
鸟儿	-1514
情意	-1515
的记忆	-1516
你别	-1517
忍不住	-1518
er	-1519
往前	-1520
情深	-1521
青山	-1522
不算	-1523
重复	-1524
剩下	-1525
吉他	-1526
桃花	-1527
又是	-1528
心疼	-1529
我没	-1530
欲望	-1531
着那	-1532
一生一世	-1533
礼物	-1534
黄河	-1535
的思念	-1536
冒险	-1537
白发	-1538
只好	-1539
围绕	-1540
在这个	-1541
说再见	-1542
在心中	-1543
一半	-1544
的事	-1545
表达	-1546
诱惑	-1547
我依然	-1548
找个	-1549
我只能	-1550
关怀	-1551
新鲜	-1552
▁no	-1553
抱歉	-1554
/	-1555
的	-1556
我	-1557
你	-1558
不	-1559
▁	-1560
一	-1561
,	-1562
是	-1563
在	-1564
爱	-1565
有	-1566
心	-1567
了	-1568
人	-1569
天	-1570
S	-1571
O	-1572
E	-1573
[	-1574
]	-1575
:	-1576
想	-1577
着	-1578
情	-1579
要	-1580
会	-1581
来	-1582
过	-1583
就	-1584
那	-1585
到	-1586
这	-1587
个	-1588
为	-1589
都	-1590
多	-1591
里	-1592
也	-1593
么	-1594
无	-1595
让	-1596
说	-1597
去	-1598
没	-1599
生	-1600
好	-1601
能	-1602
们	-1603
再	-1604
只	-1605
时	-1606
自	-1607
还	-1608
起	-1609
上	-1610
开	-1611
回	-1612
得	-1613
看	-1614
中	-1615
风	-1616
梦	-1617
下	-1618
可	-1619
如	-1620
走	-1621
谁	-1622
相	-1623
眼	-1624
美	-1625
对	-1626
地	-1627
手	-1628
光	-1629
最	-1630
已	-1631
远	-1632
花	-1633
伤	-1634
后	-1635
感	-1636
世	-1637
真	-1638
和	-1639
出	-1640
大	-1641
太	-1642
间	-1643
笑	-1644
o	-1645
样	-1646
别	-1647
把	-1648
知	-1649
夜	-1650
e	-1651
放	-1652
泪	-1653
变	-1654
道	-1655
却	-1656
点	-1657
快	-1658
像	-1659
身	-1660
以	-1661
经	-1662
给	-1663
见	-1664
望	-1665
明	-1666
年	-1667
离	-1668
记	-1669
难	-1670
他	-1671
分	-1672
又	-1673
成	-1674
己	-1675
然	-1676
现	-1677
头	-1678
乐	-1679
空	-1680
a	-1681
福	-1682
路	-1683
什	-1684
流	-1685
月	-1686
雨	-1687
从	-1688
前	-1689
念	-1690
歌	-1691
每	-1692
子	-1693
等	-1694
当	-1695
小	-1696
忘	-1697
意	-1698
永	-1699
何	-1700
忆	-1701
面	-1702
愿	-1703
家	-1704
水	-1705
留	-1706
长	-1707
声	-1708
很	-1709
落	-1710
幸	-1711
白	-1712
边	-1713
界	-1714
飞	-1715
发	-1716
曾	-1717
海	-1718
方	-1719
气	-1720
怎	-1721
温	-1722
日	-1723
所	-1724
事	-1725
才	-1726
思	-1727
今	-1728
话	-1729
痛	-1730
失	-1731
用	-1732
听	-1733
唱	-1734
未	-1735
动	-1736
深	-1737
少	-1738
山	-1739
觉	-1740
总	-1741
定	-1742
h	-1743
y	-1744
轻	-1745
苦	-1746
做	-1747
力	-1748
此	-1749
星	-1750
向	-1751
果	-1752
怕	-1753
n	-1754
春	-1755
满	-1756
次	-1757
被	-1758
i	-1759
信	-1760
儿	-1761
活	-1762
命	-1763
她	-1764
实	-1765
受	-1766
阳	-1767
恋	-1768
孤	-1769
啊	-1770
许	-1771
依	-1772
些	-1773
清	-1774
候	-1775
原	-1776
l	-1777
陪	-1778
红	-1779
越	-1780
口	-1781
色	-1782
寂	-1783
言	-1784
老	-1785
而	-1786
全	-1787
t	-1788
找	-1789
欢	-1790
与	-1791
拥	-1792
丽	-1793
待	-1794
慢	-1795
抱	-1796
更	-1797
算	-1798
单	-1799
错	-1800
重	-1801
脸	-1802
独	-1803
带	-1804
法	-1805
切	-1806
寞	-1807
安	-1808
怀	-1809
尽	-1810
种	-1811
结	-1812
往	-1813
转	-1814
于	-1815
亮	-1816
牵	-1817
因	-1818
之	-1819
千	-1820
默	-1821
青	-1822
随	-1823
喜	-1824
停	-1825
直	-1826
火	-1827
够	-1828
静	-1829
冷	-1830
问	-1831
高	-1832
住	-1833
由	-1834
同	-1835
行	-1836
迷	-1837
神	-1838
理	-1839
r	-1840
妈	-1841
该	-1842
容	-1843
哪	-1844
微	-1845
浪	-1846
黑	-1847
云	-1848
甜	-1849
片	-1850
柔	-1851
亲	-1852
s	-1853
但	-1854
悲	-1855
新	-1856
影	-1857
否	-1858
刻	-1859
暖	-1860
它	-1861
沉	-1862
打	-1863
女	-1864
终	-1865
d	-1866
哭	-1867
友	-1868
飘	-1869
场	-1870
万	-1871
伴	-1872
将	-1873
跟	-1874
懂	-1875
呀	-1876
作	-1877
彩	-1878
酒	-1879
故	-1880
音	-1881
底	-1882
吧	-1883
岁	-1884
b	-1885
晚	-1886
早	-1887
步	-1888
热	-1889
几	-1890
漫	-1891
双	-1892
缘	-1893
强	-1894
醉	-1895
关	-1896
勇	-1897
承	-1898
紧	-1899
香	-1900
平	-1901
请	-1902
敢	-1903
化	-1904
追	-1905
u	-1906
掉	-1907
期	-1908
舞	-1909
啦	-1910
进	-1911
两	-1912
守	-1913
跳	-1914
久	-1915
外	-1916
比	-1917
解	-1918
始	-1919
遇	-1920
完	-1921
m	-1922
坚	-1923
吹	-1924
味	-1925
希	-1926
处	-1927
害	-1928
求	-1929
城	-1930
管	-1931
呼	-1932
乡	-1933
角	-1934
雪	-1935
醒	-1936
需	-1937
寻	-1938
诉	-1939
朋	-1940
告	-1941
背	-1942
若	-1943
碎	-1944
弃	-1945
照	-1946
入	-1947
任	-1948
草	-1949
国	-1950
装	-1951
河	-1952
秋	-1953
w	-1954
必	-1955
穿	-1956
画	-1957
学	-1958
叫	-1959
其	-1960
诺	-1961
吗	-1962
首	-1963
散	-1964
改	-1965
常	-1966
应	-1967
代	-1968
似	-1969
g	-1970
烟	-1971
藏	-1972
语	-1973
游	-1974
体	-1975
滴	-1976
蜜	-1977
电	-1978
街	-1979
传	-1980
靠	-1981
挂	-1982
绝	-1983
渐	-1984
三	-1985
灯	-1986
节	-1987
句	-1988
机	-1989
男	-1990
蓝	-1991
或	-1992
华	-1993
度	-1994
共	-1995
线	-1996
灵	-1997
表	-1998
睡	-1999
初	-2000
正	-2001
马	-2002
闪	-2003
张	-2004
份	-2005
使	-2006
孩	-2007
息	-2008
惜	-2009
写	-2010
换	-2011
奇	-2012
忧	-2013
断	-2014
狂	-2015
续	-2016
谢	-2017
运	-2018
透	-2019
累	-2020
名	-2021
脚	-2022
复	-2023
娘	-2024
珍	-2025
悔	-2026
破	-2027
窗	-2028
近	-2029
车	-2030
假	-2031
死	-2032
睛	-2033
十	-2034
旧	-2035
消	-2036
淡	-2037
连	-2038
黄	-2039
遗	-2040
认	-2041
尘	-2042
景	-2043
杯	-2044
暗	-2045
恨	-2046
忍	-2047
荡	-2048
吻	-2049
朵	-2050
彼	-2051
乱	-2052
傻	-2053
茫	-2054
加	-2055
门	-2056
痴	-2057
烦	-2058
遍	-2059
吸	-2060
旁	-2061
象	-2062
百	-2063
爸	-2064
讲	-2065
量	-2066
幻	-2067
戏	-2068
段	-2069
送	-2070
市	-2071
誓	-2072
习	-2073
c	-2074
祝	-2075
接	-2076
目	-2077
收	-2078
仍	-2079
合	-2080
半	-2081
四	-2082
模	-2083
摇	-2084
喝	-2085
西	-2086
干	-2087
站	-2088
夏	-2089
存	-2090
付	-2091
逃	-2092
东	-2093
决	-2094
冬	-2095
精	-2096
江	-2097
悄	-2098
数	-2099
字	-2100
冰	-2101
沙	-2102
答	-2103
选	-2104
肩	-2105
妹	-2106
约	-2107
倒	-2108
拉	-2109
偷	-2110
哥	-2111
舍	-2112
怪	-2113
乎	-2114
内	-2115
洒	-2116
颗	-2117
昨	-2118
注	-2119
虽	-2120
季	-2121
迹	-2122
魂	-2123
非	-2124
继	-2125
剩	-2126
颜	-2127
房	-2128
古	-2129
本	-2130
奔	-2131
交	-2132
通	-2133
努	-2134
虚	-2135
遥	-2136
p	-2137
秒	-2138
退	-2139
反	-2140
足	-2141
台	-2142
叶	-2143
战	-2144
佛	-2145
条	-2146
膀	-2147
怨	-2148
归	-2149
脱	-2150
保	-2151
残	-2152
惯	-2153
盼	-2154
愁	-2155
持	-2156
易	-2157
主	-2158
瞬	-2159
择	-2160
演	-2161
熟	-2162
系	-2163
细	-2164
衣	-2165
护	-2166
金	-2167
公	-2168
奈	-2169
曲	-2170
缠	-2171
冲	-2172
堂	-2173
树	-2174
血	-2175
亦	-2176
义	-2177
恼	-2178
阿	-2179
指	-2180
并	-2181
烂	-2182
玩	-2183
v	-2184
便	-2185
吃	-2186
整	-2187
论	-2188
烧	-2189
握	-2190
痕	-2191
性	-2192
折	-2193
虹	-2194
绿	-2195
姑	-2196
绵	-2197
匆	-2198
跑	-2199
丝	-2200
燃	-2201
童	-2202
唯	-2203
执	-2204
漂	-2205
北	-2206
享	-2207
弟	-2208
哦	-2209
聚	-2210
途	-2211
朝	-2212
钱	-2213
坏	-2214
旅	-2215
绪	-2216
翔	-2217
寒	-2218
历	-2219
涯	-2220
视	-2221
低	-2222
园	-2223
钟	-2224
南	-2225
楚	-2226
忙	-2227
简	-2228
甘	-2229
谓	-2230
k	-2231
浮	-2232
担	-2233
旋	-2234
悠	-2235
包	-2236
局	-2237
挥	-2238
泣	-2239
宝	-2240
球	-2241
止	-2242
般	-2243
兄	-2244
困	-2245
惊	-2246
纯	-2247
偏	-2248
绕	-2249
翅	-2250
土	-2251
扬	-2252
部	-2253
荒	-2254
响	-2255
迎	-2256
f	-2257
躲	-2258
五	-2259
疯	-2260
属	-2261
野	-2262
密	-2263
竟	-2264
至	-2265
坐	-2266
耳	-2267
偶	-2268
达	-2269
嘴	-2270
辈	-2271
弱	-2272
物	-2273
格	-2274
胸	-2275
圆	-2276
脑	-2277
激	-2278
令	-2279
境	-2280
哎	-2281
顾	-2282
即	-2283
善	-2284
灰	-2285
先	-2286
埋	-2287
雄	-2288
秘	-2289
疼	-2290
湖	-2291
鸟	-2292
摆	-2293
闹	-2294
提	-2295
突	-2296
各	-2297
疲	-2298
翻	-2299
限	-2300
第	-2301
及	-2302
败	-2303
证	-2304
琴	-2305
拼	-2306
瑰	-2307
轮	-2308
慰	-2309
阵	-2310
英	-2311
眠	-2312
二	-2313
短	-2314
阮	-2315
波	-2316
鲜	-2317
尔	-2318
某	-2319
忽	-2320
玫	-2321
充	-2322
左	-2323
漠	-2324
围	-2325
磨	-2326
母	-2327
试	-2328
程	-2329
糊	-2330
悉	-2331
疑	-2332
纵	-2333
渴	-2334
逐	-2335
争	-2336
距	-2337
挽	-2338
利	-2339
潮	-2340
凉	-2341
引	-2342
烈	-2343
阴	-2344
哈	-2345
洋	-2346
负	-2347
险	-2348
酸	-2349
闭	-2350
林	-2351
魔	-2352
擦	-2353
石	-2354
借	-2355
滋	-2356
造	-2357
叹	-2358
欲	-2359
唤	-2360
避	-2361
呢	-2362
识	-2363
束	-2364
繁	-2365
苍	-2366
晨	-2367
哀	-2368
盛	-2369
位	-2370
弯	-2371
座	-2372
群	-2373
父	-2374
诚	-2375
莫	-2376
奏	-2377
踏	-2378
猜	-2379
芳	-2380
题	-2381
右	-2382
斗	-2383
仿	-2384
田	-2385
傲	-2386
哟	-2387
丢	-2388
灿	-2389
灭	-2390
憾	-2391
书	-2392
刺	-2393
拍	-2394
民	-2395
倾	-2396
宁	-2397
号	-2398
谎	-2399
诗	-2400
隐	-2401
晴	-2402
拿	-2403
聊	-2404
陌	-2405
圈	-2406
楼	-2407
耀	-2408
工	-2409
根	-2410
贵	-2411
礼	-2412
松	-2413
功	-2414
兴	-2415
浓	-2416
麻	-2417
辛	-2418
幕	-2419
骗	-2420
备	-2421
创	-2422
夕	-2423
教	-2424
释	-2425
蝶	-2426
极	-2427
恩	-2428
龙	-2429
输	-2430
抛	-2431
排	-2432
惑	-2433
隔	-2434
咱	-2435
服	-2436
仰	-2437
特	-2438
文	-2439
替	-2440
纷	-2441
湿	-2442
木	-2443
准	-2444
鼓	-2445
凡	-2446
桑	-2447
客	-2448
挡	-2449
救	-2450
印	-2451
露	-2452
融	-2453
立	-2454
剧	-2455
者	-2456
谈	-2457
值	-2458
缺	-2459
律	-2460
倦	-2461
彷	-2462
纪	-2463
布	-2464
茶	-2465
掌	-2466
吉	-2467
领	-2468
岸	-2469
临	-2470
胜	-2471
枯	-2472
良	-2473
闯	-2474
调	-2475
镜	-2476
喊	-2477
七	-2478
汗	-2479
赖	-2480
雾	-2481
昏	-2482
跌	-2483
绽	-2484
计	-2485
巴	-2486
富	-2487
碰	-2488
谅	-2489
刚	-2490
奋	-2491
脆	-2492
八	-2493
买	-2494
态	-2495
狠	-2496
划	-2497
恒	-2498
王	-2499
摸	-2500
触	-2501
伪	-2502
祈	-2503
掩	-2504
锁	-2505
抹	-2506
挣	-2507
尝	-2508
彻	-2509
究	-2510
妙	-2511
展	-2512
延	-2513
阔	-2514
骄	-2515
鱼	-2516
罪	-2517
赶	-2518
墙	-2519
抚	-2520
羊	-2521
形	-2522
沧	-2523
嘿	-2524
肯	-2525
差	-2526
馀	-2527
滚	-2528
犹	-2529
压	-2530
凝	-2531
陷	-2532
眉	-2533
康	-2534
预	-2535
际	-2536
船	-2537
贴	-2538
洗	-2539
志	-2540
偎	-2541
咖	-2542
零	-2543
扎	-2544
阻	-2545
弹	-2546
徊	-2547
助	-2548
逢	-2549
辉	-2550
载	-2551
霞	-2552
啡	-2553
徘	-2554
祖	-2555
互	-2556
圣	-2557
映	-2558
犯	-2559
制	-2560
拜	-2561
词	-2562
铁	-2563
午	-2564
报	-2565
牛	-2566
免	-2567
喔	-2568
涌	-2569
逝	-2570
浅	-2571
暂	-2572
狼	-2573
您	-2574
赏	-2575
油	-2576
泊	-2577
观	-2578
取	-2579
芒	-2580
举	-2581
另	-2582
淌	-2583
荣	-2584
支	-2585
妳	-2586
庞	-2587
品	-2588
窝	-2589
桥	-2590
升	-2591
刀	-2592
超	-2593
骨	-2594
厌	-2595
众	-2596
顶	-2597
拒	-2598
染	-2599
惫	-2600
须	-2601
军	-2602
宽	-2603
皮	-2604
费	-2605
艳	-2606
键	-2607
降	-2608
休	-2609
蒙	-2610
愈	-2611
除	-2612
豪	-2613
眸	-2614
配	-2615
图	-2616
抓	-2617
0	-2618
团	-2619
扰	-2620
笔	-2621
呆	-2622
封	-2623
慌	-2624
贝	-2625
恐	-2626
投	-2627
屋	-2628
养	-2629
既	-2630
吵	-2631
药	-2632
责	-2633
涩	-2634
考	-2635
宇	-2636
弄	-2637
业	-2638
屈	-2639
乌	-2640
急	-2641
凭	-2642
霜	-2643
银	-2644
酷	-2645
姐	-2646
蝴	-2647
网	-2648
环	-2649
惧	-2650
六	-2651
壮	-2652
欣	-2653
眷	-2654
盖	-2655
甚	-2656
价	-2657
九	-2658
辣	-2659
烁	-2660
毛	-2661
仙	-2662
搁	-2663
办	-2664
桃	-2665
欺	-2666
广	-2667
伊	-2668
托	-2669
祥	-2670
献	-2671
'	-2672
误	-2673
帮	-2674
腾	-2675
黎	-2676
挑	-2677
觅	-2678
恶	-2679
宿	-2680
婆	-2681
撒	-2682
推	-2683
饭	-2684
尖	-2685
套	-2686
洁	-2687
徨	-2688
讨	-2689
控	-2690
床	-2691
婚	-2692
纸	-2693
坎	-2694
撑	-2695
侣	-2696
周	-2697
朗	-2698
郁	-2699
牧	-2700
1	-2701
唇	-2702
索	-2703
尾	-2704
确	-2705
采	-2706
坠	-2707
软	-2708
较	-2709
速	-2710
播	-2711
村	-2712
捞	-2713
暴	-2714
抗	-2715
健	-2716
弦	-2717
裂	-2718
牢	-2719
凄	-2720
坷	-2721
祷	-2722
奶	-2723
冒	-2724
怜	-2725
嘛	-2726
郎	-2727
宙	-2728
餐	-2729
委	-2730
甲	-2731
占	-2732
抬	-2733
撕	-2734
粉	-2735
肠	-2736
娃	-2737
懒	-2738
幽	-2739
练	-2740
寄	-2741
弥	-2742
显	-2743
潇	-2744
击	-2745
汉	-2746
耐	-2747
层	-2748
鬼	-2749
柳	-2750
艰	-2751
冻	-2752
件	-2753
芬	-2754
卖	-2755
熬	-2756
乖	-2757
珠	-2758
泡	-2759
含	-2760
呵	-2761
娇	-2762
泥	-2763
羞	-2764
卷	-2765
欠	-2766
闻	-2767
罗	-2768
尊	-2769
堆	-2770
贪	-2771
抖	-2772
胆	-2773
2	-2774
秀	-2775
航	-2776
渡	-2777
暮	-2778
班	-2779
案	-2780
补	-2781
端	-2782
纠	-2783
智	-2784
废	-2785
遮	-2786
唔	-2787
怒	-2788
验	-2789
伸	-2790
顺	-2791
劳	-2792
招	-2793
踪	-2794
扉	-2795
拖	-2796
异	-2797
织	-2798
翩	-2799
俩	-2800
扮	-2801
鞋	-2802
淋	-2803
仔	-2804
嗨	-2805
撞	-2806
敌	-2807
胡	-2808
迟	-2809
赛	-2810
探	-2811
具	-2812
尚	-2813
倔	-2814
枝	-2815
危	-2816
病	-2817
齐	-2818
末	-2819
媚	-2820
修	-2821
君	-2822
姿	-2823
专	-2824
统	-2825
睁	-2826
毁	-2827
饮	-2828
莲	-2829
禁	-2830
泛	-2831
雅	-2832
悴	-2833
滩	-2834
编	-2835
菜	-2836
戒	-2837
憔	-2838
师	-2839
杂	-2840
耶	-2841
穷	-2842
沿	-2843
闷	-2844
搏	-2845
霓	-2846
坦	-2847
卡	-2848
式	-2849
瓜	-2850
玉	-2851
滑	-2852
读	-2853
煌	-2854
克	-2855
防	-2856
固	-2857
港	-2858
脉	-2859
谷	-2860
爷	-2861
霸	-2862
妆	-2863
族	-2864
板	-2865
馨	-2866
积	-2867
绊	-2868
混	-2869
士	-2870
饰	-2871
嫁	-2872
抽	-2873
净	-2874
糖	-2875
埃	-2876
叛	-2877
狗	-2878
刹	-2879
奢	-2880
伞	-2881
堡	-2882
杀	-2883
料	-2884
烛	-2885
缓	-2886
帅	-2887
涂	-2888
泉	-2889
爬	-2890
米	-2891
州	-2892
猫	-2893
赞	-2894
适	-2895
厚	-2896
袋	-2897
悟	-2898
伟	-2899
敲	-2900
标	-2901
凋	-2902
喧	-2903
歉	-2904
挤	-2905
块	-2906
获	-2907
京	-2908
篇	-2909
谊	-2910
联	-2911
臂	-2912
溜	-2913
雁	-2914
促	-2915
置	-2916
诱	-2917
躺	-2918
捉	-2919
慨	-2920
凌	-2921
朦	-2922
蔓	-2923
萎	-2924
迁	-2925
晃	-2926
史	-2927
旗	-2928
翼	-2929
庆	-2930
毒	-2931
财	-2932
武	-2933
孔	-2934
扑	-2935
毫	-2936
缕	-2937
洞	-2938
脾	-2939
店	-2940
歇	-2941
讯	-2942
巧	-2943
牌	-2944
震	-2945
剑	-2946
征	-2947
铭	-2948
盘	-2949
捧	-2950
衷	-2951
规	-2952
噢	-2953
巷	-2954
趣	-2955
颤	-2956
据	-2957
呦	-2958
德	-2959
优	-2960
惹	-2961
则	-2962
割	-2963
慕	-2964
姓	-2965
晰	-2966
挺	-2967
奉	-2968
虑	-2969
雷	-2970
晓	-2971
示	-2972
源	-2973
稀	-2974
绢	-2975
愉	-2976
私	-2977
庄	-2978
梅	-2979
绰	-2980
膛	-2981
聪	-2982
衬	-2983
肉	-2984
j	-2985
帝	-2986
抵	-2987
哒	-2988
登	-2989
哼	-2990
慈	-2991
敬	-2992
阑	-2993
携	-2994
搞	-2995
湾	-2996
耍	-2997
胧	-2998
针	-2999
契	-3000
食	-3001
李	-3002
钢	-3003
操	-3004
烫	-3005
居	-3006
畏	-3007
剪	-3008
谣	-3009
吞	-3010
赢	-3011
碌	-3012
拢	-3013
牙	-3014
枕	-3015
瘤	-3016
移	-3017
措	-3018
墨	-3019
忠	-3020
严	-3021
梭	-3022
伙	-3023
吐	-3024
薄	-3025
逼	-3026
寸	-3027
辽	-3028
铃	-3029
章	-3030
兵	-3031
盟	-3032
闲	-3033
帆	-3034
咿	-3035
腰	-3036
蛋	-3037
录	-3038
拨	-3039
川	-3040
畅	-3041
鹰	-3042
俊	-3043
峰	-3044
渺	-3045
豫	-3046
权	-3047
集	-3048
壁	-3049
皱	-3050
宠	-3051
返	-3052
沦	-3053
裳	-3054
呐	-3055
晒	-3056
玛	-3057
蠢	-3058
崩	-3059
赤	-3060
建	-3061
添	-3062
育	-3063
乘	-3064
势	-3065
瓣	-3066
枪	-3067
爹	-3068
丰	-3069
丑	-3070
淹	-3071
搭	-3072
灌	-3073
设	-3074
缩	-3075
勾	-3076
梁	-3077
啥	-3078
挫	-3079
舟	-3080
课	-3081
昧	-3082
晶	-3083
煎	-3084
森	-3085
甩	-3086
社	-3087
俗	-3088
符	-3089
肆	-3090
麦	-3091
骑	-3092
跨	-3093
铺	-3094
熄	-3095
且	-3096
轰	-3097
忌	-3098
怅	-3099
兰	-3100
戴	-3101
伏	-3102
叮	-3103
夫	-3104
篮	-3105
陶	-3106
巨	-3107
爆	-3108
眶	-3109
迈	-3110
勉	-3111
码	-3112
趁	-3113
致	-3114
卑	-3115
勤	-3116
弊	-3117
庭	-3118
校	-3119
燕	-3120
芽	-3121
荷	-3122
塞	-3123
萨	-3124
赌	-3125
款	-3126
竹	-3127
普	-3128
碧	-3129
抑	-3130
院	-3131
溪	-3132
璃	-3133
档	-3134
池	-3135
填	-3136
坡	-3137
逆	-3138
塔	-3139
咪	-3140
夸	-3141
眨	-3142
斯	-3143
类	-3144
堪	-3145
逛	-3146
鸣	-3147
摘	-3148
漾	-3149
斑	-3150
架	-3151
盏	-3152
惆	-3153
披	-3154
催	-3155
悦	-3156
佳	-3157
票	-3158
惦	-3159
岛	-3160
蹈	-3161
唐	-3162
肝	-3163
丹	-3164
络	-3165
喂	-3166
焰	-3167
悬	-3168
串	-3169
略	-3170
邂	-3171
逅	-3172
漆	-3173
裙	-3174
哩	-3175
器	-3176
队	-3177
导	-3178
秦	-3179
射	-3180
躯	-3181
辰	-3182
貌	-3183
润	-3184
袂	-3185
扇	-3186
杨	-3187
宵	-3188
嫌	-3189
汤	-3190
绚	-3191
葬	-3192
狈	-3193
纱	-3194
颠	-3195
笨	-3196
玻	-3197
励	-3198
卫	-3199
辜	-3200
驰	-3201
筝	-3202
赐	-3203
翱	-3204
描	-3205
谱	-3206
鸡	-3207
慧	-3208
摩	-3209
畔	-3210
郴	-3211
窍	-3212
派	-3213
技	-3214
幅	-3215
逗	-3216
呈	-3217
颊	-3218
拾	-3219
惘	-3220
瘦	-3221
商	-3222
囊	-3223
孝	-3224
嘲	-3225
塌	-3226
碗	-3227
质	-3228
迫	-3229
衫	-3230
辑	-3231
锦	-3232
刷	-3233
爽	-3234
纹	-3235
启	-3236
典	-3237
按	-3238
昔	-3239
递	-3240
勒	-3241
咒	-3242
插	-3243
横	-3244
牲	-3245
宣	-3246
魅	-3247
绣	-3248
斜	-3249
毕	-3250
紫	-3251
肺	-3252
垂	-3253
吟	-3254
浩	-3255
踩	-3256
牺	-3257
3	-3258
棒	-3259
诞	-3260
啰	-3261
脏	-3262
菩	-3263
威	-3264
豆	-3265
汇	-3266
予	-3267
呜	-3268
妄	-3269
澎	-3270
室	-3271
愚	-3272
称	-3273
骂	-3274
羡	-3275
凤	-3276
宫	-3277
治	-3278
减	-3279
丛	-3280
沟	-3281
暧	-3282
拂	-3283
肤	-3284
亚	-3285
拔	-3286
跃	-3287
兜	-3288
劝	-3289
博	-3290
湃	-3291
岗	-3292
苏	-3293
桌	-3294
维	-3295
5	-3296
疆	-3297
熊	-3298
褪	-3299
笼	-3300
硬	-3301
吼	-3302
尼	-3303
扯	-3304
营	-3305
崖	-3306
憧	-3307
袭	-3308
仅	-3309
氛	-3310
资	-3311
洲	-3312
妒	-3313
糟	-3314
丈	-3315
扛	-3316
蔚	-3317
页	-3318
焦	-3319
苗	-3320
伐	-3321
拳	-3322
测	-3323
番	-3324
钻	-3325
嚣	-3326
状	-3327
谐	-3328
憬	-3329
概	-3330
溃	-3331
疤	-3332
肚	-3333
介	-3334
锋	-3335
袖	-3336
摧	-3337
赚	-3338
魄	-3339
虎	-3340
恍	-3341
素	-3342
炼	-3343
罚	-3344
霾	-3345
扭	-3346
舒	-3347
盈	-3348
缤	-3349
绘	-3350
稳	-3351
涟	-3352
亡	-3353
愧	-3354
箭	-3355
劲	-3356
瓦	-3357
帘	-3358
盲	-3359
聆	-3360
缝	-3361
赴	-3362
央	-3363
汹	-3364
祸	-3365
妨	-3366
扁	-3367
扶	-3368
列	-3369
衍	-3370
顽	-3371
堕	-3372
壳	-3373
幼	-3374
轨	-3375
炫	-3376
揭	-3377
参	-3378
淘	-3379
罢	-3380
术	-3381
违	-3382
况	-3383
昂	-3384
涡	-3385
颂	-3386
哗	-3387
敷	-3388
澈	-3389
韵	-3390
崇	-3391
频	-3392
懦	-3393
侧	-3394
绑	-3395
骏	-3396
咬	-3397
官	-3398
敞	-3399
徒	-3400
恰	-3401
产	-3402
荤	-3403
腿	-3404
区	-3405
瓶	-3406
糕	-3407
纳	-3408
府	-3409
碍	-3410
户	-3411
岭	-3412
饱	-3413
夺	-3414
旦	-3415
吓	-3416
汪	-3417
笛	-3418
檐	-3419
驱	-3420
酿	-3421
侵	-3422
掠	-3423
谜	-3424
仇	-3425
扣	-3426
叠	-3427
扫	-3428
炎	-3429
皆	-3430
8	-3431
荆	-3432
挚	-3433
腔	-3434
型	-3435
宰	-3436
倍	-3437
浴	-3438
皇	-3439
级	-3440
咽	-3441
嗒	-3442
枫	-3443
哄	-3444
艺	-3445
嗦	-3446
嘟	-3447
拆	-3448
恭	-3449
沾	-3450
睇	-3451
虫	-3452
涛	-3453
炸	-3454
冥	-3455
溶	-3456
肥	-3457
丧	-3458
尺	-3459
司	-3460
萦	-3461
奖	-3462
廓	-3463
蒸	-3464
妻	-3465
掏	-3466
淀	-3467
股	-3468
哇	-3469
唉	-3470
率	-3471
瑟	-3472
附	-3473
额	-3474
协	-3475
翠	-3476
惩	-3477
孙	-3478
箱	-3479
农	-3480
颓	-3481
鼻	-3482
妥	-3483
辗	-3484
溢	-3485
哑	-3486
患	-3487
党	-3488
汽	-3489
甸	-3490
筑	-3491
陈	-3492
亏	-3493
咁	-3494
啸	-3495
攀	-3496
枷	-3497
辨	-3498
凑	-3499
席	-3500
沸	-3501
嘻	-3502
锅	-3503
奥	-3504
邪	-3505
懵	-3506
跎	-3507
企	-3508
顿	-3509
妖	-3510
炊	-3511
副	-3512
棘	-3513
逍	-3514
鸳	-3515
梢	-3516
警	-3517
厮	-3518
棉	-3519
镇	-3520
沫	-3521
缚	-3522
鞭	-3523
疚	-3524
蕊	-3525
蹉	-3526
霍	-3527
愤	-3528
旺	-3529
浇	-3530
漏	-3531
9	-3532
赠	-3533
灾	-3534
叨	-3535
喉	-3536
粒	-3537
抢	-3538
稚	-3539
疏	-3540
医	-3541
卸	-3542
嬉	-3543
驳	-3544
6	-3545
鸯	-3546
咸	-3547
耗	-3548
猛	-3549
枉	-3550
腐	-3551
侯	-3552
甫	-3553
眺	-3554
毡	-3555
4	-3556
7	-3557
漪	-3558
潜	-3559
陀	-3560
元	-3561
昼	-3562
述	-3563
朽	-3564
惨	-3565
鸿	-3566
寥	-3567
湘	-3568
巍	-3569
科	-3570
噜	-3571
羽	-3572
井	-3573
循	-3574
曳	-3575
梯	-3576
袅	-3577
兽	-3578
屏	-3579
浸	-3580
茄	-3581
虔	-3582
逞	-3583
鲁	-3584
萧	-3585
兑	-3586
捱	-3587
施	-3588
x	-3589
基	-3590
增	-3591
娶	-3592
亭	-3593
芭	-3594
察	-3595
漩	-3596
z	-3597
刮	-3598
训	-3599
裸	-3600
莉	-3601
壶	-3602
戈	-3603
渊	-3604
烙	-3605
衡	-3606
议	-3607
姻	-3608
柴	-3609
雀	-3610
驻	-3611
曙	-3612
塘	-3613
饿	-3614
渗	-3615
娜	-3616
炮	-3617
拯	-3618
伦	-3619
泄	-3620
滔	-3621
旷	-3622
污	-3623
贫	-3624
梳	-3625
疗	-3626
猪	-3627
厢	-3628
饶	-3629
嘅	-3630
棵	-3631
澜	-3632
躁	-3633
攻	-3634
革	-3635
删	-3636
喘	-3637
垒	-3638
氧	-3639
夹	-3640
匙	-3641
雕	-3642
冇	-3643
苹	-3644
竞	-3645
萌	-3646
婉	-3647
晕	-3648
渔	-3649
判	-3650
债	-3651
樱	-3652
潺	-3653
瞒	-3654
沐	-3655
溉	-3656
隆	-3657
遭	-3658
咯	-3659
珊	-3660
暝	-3661
欧	-3662
巾	-3663
仁	-3664
劫	-3665
芦	-3666
货	-3667
液	-3668
乏	-3669
俏	-3670
签	-3671
脂	-3672
腻	-3673
亿	-3674
妩	-3675
摔	-3676
务	-3677
邀	-3678
乜	-3679
域	-3680
崎	-3681
仲	-3682
璀	-3683
朴	-3684
粗	-3685
冠	-3686
舌	-3687
黯	-3688
咚	-3689
省	-3690
召	-3691
咧	-3692
岖	-3693
构	-3694
歹	-3695
窒	-3696
薇	-3697
殿	-3698
癫	-3699
铜	-3700
泼	-3701
泽	-3702
唠	-3703
尬	-3704
斩	-3705
摊	-3706
啤	-3707
桂	-3708
猎	-3709
筋	-3710
谋	-3711
堤	-3712
振	-3713
炽	-3714
碑	-3715
济	-3716
稻	-3717
璨	-3718
葛	-3719
鸽	-3720
恳	-3721
障	-3722
丁	-3723
罩	-3724
喃	-3725
尴	-3726
涨	-3727
溺	-3728
策	-3729
蕾	-3730
骤	-3731
撩	-3732
倚	-3733
搬	-3734
梨	-3735
鬓	-3736
蜡	-3737
丘	-3738
煮	-3739
荐	-3740
骚	-3741
芜	-3742
菊	-3743
喷	-3744
嗯	-3745
杰	-3746
驾	-3747
佢	-3748
妇	-3749
铸	-3750
允	-3751
鸥	-3752
兮	-3753
浑	-3754
蜂	-3755
呒	-3756
杜	-3757
寨	-3758
抄	-3759
沈	-3760
裤	-3761
链	-3762
帐	-3763
痒	-3764
茧	-3765
材	-3766
煞	-3767
瞧	-3768
馆	-3769
厅	-3770
巅	-3771
趟	-3772
凰	-3773
怯	-3774
鹅	-3775
佑	-3776
矫	-3777
蹦	-3778
脊	-3779
邻	-3780
憨	-3781
蹄	-3782
惚	-3783
荫	-3784
嫩	-3785
泰	-3786
寿	-3787
扼	-3788
胖	-3789
凶	-3790
屎	-3791
盾	-3792
斟	-3793
诸	-3794
贺	-3795
踢	-3796
厉	-3797
曦	-3798
赋	-3799
效	-3800
访	-3801
嘘	-3802
萤	-3803
阅	-3804
叉	-3805
栏	-3806
廊	-3807
榜	-3808
鹤	-3809
吊	-3810
仗	-3811
偿	-3812
掀	-3813
嘀	-3814
嘎	-3815
宴	-3816
洪	-3817
莹	-3818
蚁	-3819
奴	-3820
框	-3821
讽	-3822
乞	-3823
员	-3824
缀	-3825
襟	-3826
敏	-3827
徉	-3828
曼	-3829
焊	-3830
穹	-3831
衰	-3832
裹	-3833
例	-3834
沁	-3835
项	-3836
徜	-3837
忐	-3838
忑	-3839
沥	-3840
狱	-3841
瘾	-3842
篝	-3843
范	-3844
莺	-3845
堵	-3846
滥	-3847
阱	-3848
嗡	-3849
娱	-3850
絮	-3851
桐	-3852
逸	-3853
暑	-3854
腹	-3855
帽	-3856
蛮	-3857
蛾	-3858
嘱	-3859
靓	-3860
鼠	-3861
惶	-3862
驶	-3863
叔	-3864
阶	-3865
呱	-3866
序	-3867
挨	-3868
搜	-3869
鸭	-3870
仓	-3871
伯	-3872
廉	-3873
锣	-3874
鸦	-3875
粹	-3876
嫉	-3877
峡	-3878
庸	-3879
朱	-3880
沮	-3881
睬	-3882
卧	-3883
蒲	-3884
骋	-3885
捕	-3886
歪	-3887
灼	-3888
驼	-3889
兆	-3890
匹	-3891
卿	-3892
查	-3893
椅	-3894
盒	-3895
鹿	-3896
兔	-3897
贱	-3898
嘞	-3899
捆	-3900
矛	-3901
罕	-3902
菲	-3903
啼	-3904
袱	-3905
瞎	-3906
销	-3907
刘	-3908
勿	-3909
瀚	-3910
盐	-3911
臭	-3912
损	-3913
蓬	-3914
叭	-3915
辩	-3916
侠	-3917
卦	-3918
磊	-3919
详	-3920
咳	-3921
尤	-3922
拣	-3923
祭	-3924
稍	-3925
籁	-3926
纤	-3927
益	-3928
绩	-3929
蜕	-3930
胞	-3931
胭	-3932
嘶	-3933
杆	-3934
耕	-3935
撼	-3936
蛙	-3937
醇	-3938
拟	-3939
蚀	-3940
殇	-3941
绸	-3942
牡	-3943
齿	-3944
岩	-3945
疾	-3946
藤	-3947
冀	-3948
扔	-3949
炙	-3950
霄	-3951
倘	-3952
咛	-3953
哮	-3954
巢	-3955
蔷	-3956
跪	-3957
坤	-3958
丫	-3959
徐	-3960
粮	-3961
屁	-3962
瞳	-3963
贤	-3964
槟	-3965
竭	-3966
评	-3967
辞	-3968
墓	-3969
揣	-3970
囚	-3971
栖	-3972
栽	-3973
阁	-3974
径	-3975
棋	-3976
搂	-3977
暇	-3978
浊	-3979
肌	-3980
赎	-3981
隙	-3982
洛	-3983
澄	-3984
盔	-3985
攘	-3986
扩	-3987
涉	-3988
供	-3989
兼	-3990
吔	-3991
喳	-3992
宾	-3993
梧	-3994
矜	-3995
禅	-3996
傍	-3997
熙	-3998
揉	-3999
烽	-4000
琶	-4001
翘	-4002
币	-4003
捡	-4004
钞	-4005
斤	-4006
吆	-4007
喵	-4008
憎	-4009
鳞	-4010
宅	-4011
政	-4012
栋	-4013
燥	-4014
羁	-4015
蝉	-4016
厦	-4017
寺	-4018
批	-4019
组	-4020
葱	-4021
咋	-4022
崭	-4023
慷	-4024
汰	-4025
胶	-4026
蜓	-4027
卓	-4028
叽	-4029
琵	-4030
贼	-4031
剥	-4032
屑	-4033
盆	-4034
讶	-4035
酵	-4036
壤	-4037
砖	-4038
蚂	-4039
噬	-4040
婪	-4041
磕	-4042
蜻	-4043
哽	-4044
忏	-4045
琢	-4046
邦	-4047
饼	-4048
宗	-4049
菌	-4050
萝	-4051
矩	-4052
蓦	-4053
垃	-4054
惠	-4055
谛	-4056
绎	-4057
迢	-4058
遨	-4059
俯	-4060
圾	-4061
胃	-4062
辱	-4063
撇	-4064
焚	-4065
茉	-4066
践	-4067
俺	-4068
恕	-4069
悯	-4070
抉	-4071
拦	-4072
狮	-4073
鹊	-4074
仪	-4075
橱	-4076
粘	-4077
膊	-4078
昙	-4079
筒	-4080
罐	-4081
俘	-4082
册	-4083
冤	-4084
咆	-4085
嘹	-4086
葡	-4087
估	-4088
炉	-4089
袍	-4090
拓	-4091
玄	-4092
监	-4093
q	-4094
勃	-4095
咫	-4096
悸	-4097
窃	-4098
伫	-4099
娑	-4100
俱	-4101
挖	-4102
陆	-4103
毅	-4104
版	-4105
誉	-4106
怖	-4107
浆	-4108
嗬	-4109
捏	-4110
烬	-4111
萄	-4112
毋	-4113
贯	-4114
孕	-4115
帜	-4116
矮	-4117
僵	-4118
宜	-4119
惟	-4120
购	-4121
剔	-4122
哨	-4123
煽	-4124
黏	-4125
杏	-4126
毯	-4127
笙	-4128
坟	-4129
鹃	-4130
侈	-4131
戚	-4132
唏	-4133
庙	-4134
犀	-4135
腊	-4136
蒂	-4137
虏	-4138
谦	-4139
钥	-4140
墟	-4141
娟	-4142
绳	-4143
鳖	-4144
嘉	-4145
坛	-4146
媒	-4147
莎	-4148
蜒	-4149
蜿	-4150
铮	-4151
龄	-4152
喇	-4153
彿	-4154
咙	-4155
噩	-4156
泞	-4157
泳	-4158
虾	-4159
逻	-4160
锵	-4161
豁	-4162
醋	-4163
卜	-4164
嚼	-4165
履	-4166
御	-4167
叙	-4168
症	-4169
棍	-4170
炒	-4171
狐	-4172
蛇	-4173
览	-4174
坊	-4175
职	-4176
蓄	-4177
饥	-4178
儡	-4179
蕴	-4180
薪	-4181
琐	-4182
砂	-4183
萍	-4184
乾	-4185
凯	-4186
啪	-4187
喽	-4188
蓉	-4189
谬	-4190
遣	-4191
妞	-4192
屉	-4193
惭	-4194
拱	-4195
揽	-4196
搅	-4197
诅	-4198
乳	-4199
盗	-4200
膜	-4201
诶	-4202
皎	-4203
虐	-4204
诡	-4205
储	-4206
屹	-4207
辆	-4208
宏	-4209
柜	-4210
淇	-4211
苔	-4212
陕	-4213
媳	-4214
岔	-4215
耻	-4216
蕉	-4217
贸	-4218
邃	-4219
咕	-4220
宛	-4221
傀	-4222
恙	-4223
撤	-4224
渲	-4225
硝	-4226
窥	-4227
蜃	-4228
闺	-4229
韩	-4230
岂	-4231
拭	-4232
汁	-4233
溅	-4234
痊	-4235
盯	-4236
蜚	-4237
酥	-4238
咀	-4239
弧	-4240
斥	-4241
昌	-4242
梵	-4243
玲	-4244
莱	-4245
贞	-4246
酬	-4247
捎	-4248
瑕	-4249
瑞	-4250
眩	-4251
辫	-4252
锐	-4253
坑	-4254
惰	-4255
锻	-4256
寐	-4257
汐	-4258
迪	-4259
址	-4260
砌	-4261
赫	-4262
跋	-4263
龟	-4264
俾	-4265
孟	-4266
睫	-4267
胎	-4268
酝	-4269
喻	-4270
瀑	-4271
缸	-4272
芙	-4273
诵	-4274
奠	-4275
嫣	-4276
艾	-4277
徽	-4278
惺	-4279
拐	-4280
殊	-4281
秧	-4282
膝	-4283
诀	-4284
邮	-4285
斓	-4286
瑶	-4287
疵	-4288
痹	-4289
沃	-4290
猴	-4291
窄	-4292
纽	-4293
诈	-4294
垫	-4295
拘	-4296
眯	-4297
臼	-4298
裕	-4299
锈	-4300
偕	-4301
哋	-4302
嗌	-4303
塑	-4304
姆	-4305
研	-4306
柱	-4307
粱	-4308
蔽	-4309
订	-4310
谂	-4311
陋	-4312
厨	-4313
篱	-4314
飙	-4315
吾	-4316
培	-4317
晖	-4318
析	-4319
殷	-4320
岳	-4321
拎	-4322
沂	-4323
酱	-4324
铿	-4325
呗	-4326
弓	-4327
柏	-4328
渝	-4329
烤	-4330
苇	-4331
僧	-4332
屌	-4333
恤	-4334
羔	-4335
袜	-4336
冈	-4337
娥	-4338
恁	-4339
抒	-4340
擅	-4341
橘	-4342
绻	-4343
哆	-4344
沼	-4345
霎	-4346
厕	-4347
巡	-4348
捷	-4349
竖	-4350
嘢	-4351
摄	-4352
赔	-4353
遐	-4354
婵	-4355
碟	-4356
缱	-4357
耸	-4358
苞	-4359
贡	-4360
鉴	-4361
钓	-4362
鞍	-4363
冕	-4364
汝	-4365
湮	-4366
贰	-4367
魇	-4368
厂	-4369
嚟	-4370
湛	-4371
熏	-4372
瞄	-4373
砰	-4374
诃	-4375
凛	-4376
括	-4377
拽	-4378
擎	-4379
氏	-4380
睹	-4381
舅	-4382
啲	-4383
敦	-4384
棱	-4385
籍	-4386
舔	-4387
茂	-4388
乃	-4389
仆	-4390
咗	-4391
哺	-4392
唧	-4393
磁	-4394
铅	-4395
佩	-4396
倩	-4397
姊	-4398
峨	-4399
捂	-4400
橙	-4401
穆	-4402
裁	-4403
阙	-4404
陵	-4405
隶	-4406
伍	-4407
吱	-4408
淅	-4409
缅	-4410
钩	-4411
黛	-4412
屿	-4413
恬	-4414
腼	-4415
谨	-4416
唷	-4417
砸	-4418
腆	-4419
膏	-4420
荧	-4421
趴	-4422
陨	-4423
劈	-4424
懈	-4425
检	-4426
腮	-4427
郭	-4428
叼	-4429
厘	-4430
恢	-4431
椒	-4432
漓	-4433
颈	-4434
彤	-4435
捍	-4436
窜	-4437
篷	-4438
簸	-4439
锭	-4440
喺	-4441
涸	-4442
淳	-4443
皑	-4444
苛	-4445
葵	-4446
靥	-4447
顷	-4448
垮	-4449
枣	-4450
桨	-4451
祟	-4452
笺	-4453
莽	-4454
迭	-4455
乍	-4456
嚷	-4457
崛	-4458
澡	-4459
筹	-4460
迂	-4461
饺	-4462
哲	-4463
喋	-4464
巫	-4465
揾	-4466
敖	-4467
槐	-4468
潦	-4469
缭	-4470
翁	-4471
耘	-4472
账	-4473
撅	-4474
昆	-4475
滞	-4476
衔	-4477
冽	-4478
县	-4479
唆	-4480
唻	-4481
宋	-4482
寓	-4483
役	-4484
乔	-4485
叩	-4486
娆	-4487
截	-4488
挠	-4489
搀	-4490
硕	-4491
租	-4492
酌	-4493
嫦	-4494
朔	-4495
杭	-4496
窦	-4497
呃	-4498
嘈	-4499
审	-4500
庇	-4501
睦	-4502
绒	-4503
聋	-4504
茁	-4505
摹	-4506
植	-4507
螺	-4508
刑	-4509
攒	-4510
椰	-4511
稼	-4512
咦	-4513
婀	-4514
悼	-4515
扒	-4516
泻	-4517
跚	-4518
稞	-4519
侬	-4520
凳	-4521
噶	-4522
滨	-4523
鹭	-4524
吴	-4525
怡	-4526
樽	-4527
疮	-4528
莓	-4529
傈	-4530
旨	-4531
枚	-4532
箫	-4533
遵	-4534
柠	-4535
桶	-4536
潭	-4537
肃	-4538
臣	-4539
赵	-4540
踮	-4541
吽	-4542
咩	-4543
援	-4544
涧	-4545
砍	-4546
缈	-4547
伶	-4548
冉	-4549
旭	-4550
渣	-4551
镶	-4552
咏	-4553
嗅	-4554
簇	-4555
茅	-4556
诠	-4557
蹒	-4558
刃	-4559
掘	-4560
敛	-4561
涅	-4562
辙	-4563
迅	-4564
镭	-4565
核	-4566
津	-4567
淑	-4568
烊	-4569
瞪	-4570
矾	-4571
鄂	-4572
呕	-4573
姥	-4574
怠	-4575
棠	-4576
浏	-4577
韧	-4578
驯	-4579
啷	-4580
昵	-4581
瞰	-4582
绍	-4583
憋	-4584
戎	-4585
擂	-4586
琼	-4587
骆	-4588
嗓	-4589
尸	-4590
帕	-4591
拙	-4592
濡	-4593
苟	-4594
吝	-4595
坪	-4596
彝	-4597
慵	-4598
檬	-4599
沱	-4600
轿	-4601
靡	-4602
厝	-4603
库	-4604
柯	-4605
洼	-4606
睐	-4607
窑	-4608
肢	-4609
茵	-4610
谧	-4611
锤	-4612
隧	-4613
戳	-4614
揪	-4615
泱	-4616
浦	-4617
祢	-4618
蚕	-4619
喀	-4620
嗟	-4621
夷	-4622
炕	-4623
肖	-4624
轩	-4625
哉	-4626
廿	-4627
悍	-4628
拈	-4629
捐	-4630
晟	-4631
碾	-4632
笆	-4633
缥	-4634
肿	-4635
胀	-4636
藕	-4637
蛛	-4638
阂	-4639
丸	-4640
婴	-4641
崔	-4642
昭	-4643
歧	-4644
淮	-4645
猬	-4646
珑	-4647
肮	-4648
薰	-4649
蟹	-4650
匿	-4651
呻	-4652
噪	-4653
掺	-4654
搓	-4655
葫	-4656
蚊	-4657
辟	-4658
锡	-4659
俭	-4660
寡	-4661
炬	-4662
瓷	-4663
肋	-4664
嗔	-4665
奸	-4666
弗	-4667
拌	-4668
穴	-4669
桠	-4670
芝	-4671
鄙	-4672
唢	-4673
惬	-4674
暄	-4675
梗	-4676
榕	-4677
涤	-4678
滂	-4679
腥	-4680
蜗	-4681
郑	-4682
霉	-4683
馁	-4684
嬷	-4685
寇	-4686
怦	-4687
捶	-4688
涓	-4689
箍	-4690
簿	-4691
菇	-4692
蜀	-4693
陛	-4694
嘣	-4695
拚	-4696
捣	-4697
烘	-4698
犁	-4699
艘	-4700
蝇	-4701
侥	-4702
吭	-4703
榴	-4704
狭	-4705
蜘	-4706
袄	-4707
劣	-4708
匡	-4709
呔	-4710
啾	-4711
妃	-4712
姨	-4713
押	-4714
晦	-4715
涵	-4716
皂	-4717
矿	-4718
蒜	-4719
躬	-4720
惋	-4721
掰	-4722
攫	-4723
瞑	-4724
粥	-4725
霖	-4726
仑	-4727
咐	-4728
徙	-4729
琉	-4730
诲	-4731
削	-4732
嚎	-4733
垢	-4734
宕	-4735
杖	-4736
炭	-4737
磅	-4738
纺	-4739
贩	-4740
铛	-4741
侗	-4742
傅	-4743
嗜	-4744
噻	-4745
屡	-4746
峦	-4747
槃	-4748
焕	-4749
绷	-4750
舱	-4751
遂	-4752
钉	-4753
驿	-4754
骸	-4755
髓	-4756
侍	-4757
剂	-4758
坝	-4759
株	-4760
潘	-4761
甭	-4762
疙	-4763
腕	-4764
蜷	-4765
锢	-4766
孽	-4767
帖	-4768
弘	-4769
熔	-4770
豹	-4771
卢	-4772
沛	-4773
涕	-4774
砺	-4775
粼	-4776
茹	-4777
酣	-4778
锄	-4779
颦	-4780
佬	-4781
侃	-4782
儒	-4783
峻	-4784
幡	-4785
泯	-4786
醺	-4787
韶	-4788
骇	-4789
姜	-4790
彰	-4791
惮	-4792
懊	-4793
拧	-4794
旎	-4795
渠	-4796
亩	-4797
勋	-4798
垠	-4799
旖	-4800
煤	-4801
狸	-4802
皓	-4803
督	-4804
脖	-4805
蹋	-4806
咤	-4807
噔	-4808
帷	-4809
曹	-4810
狡	-4811
礁	-4812
绞	-4813
缰	-4814
羌	-4815
舵	-4816
蹟	-4817
邋	-4818
铐	-4819
驮	-4820
鹏	-4821
厄	-4822
售	-4823
啬	-4824
瓢	-4825
禄	-4826
郊	-4827
霹	-4828
驴	-4829
鼎	-4830
乒	-4831
乓	-4832
啃	-4833
愫	-4834
柄	-4835
栗	-4836
沌	-4837
磋	-4838
禧	-4839
缴	-4840
膨	-4841
赘	-4842
呛	-4843
捺	-4844
沏	-4845
煦	-4846
疫	-4847
痘	-4848
磐	-4849
笃	-4850
绮	-4851
晋	-4852
珀	-4853
砚	-4854
踌	-4855
剃	-4856
屯	-4857
瑚	-4858
秤	-4859
芸	-4860
鞘	-4861
圪	-4862
夙	-4863
掷	-4864
洱	-4865
燎	-4866
申	-4867
瞥	-4868
筷	-4869
翡	-4870
董	-4871
钗	-4872
陇	-4873
奄	-4874
拗	-4875
琥	-4876
穗	-4877
苒	-4878
颇	-4879
尿	-4880
旱	-4881
曰	-4882
迸	-4883
亢	-4884
拴	-4885
挪	-4886
棚	-4887
楞	-4888
缎	-4889
跹	-4890
躇	-4891
遢	-4892
钝	-4893
雳	-4894
鞠	-4895
卒	-4896
哂	-4897
娓	-4898
掂	-4899
桦	-4900
橡	-4901
檀	-4902
氢	-4903
滤	-4904
瞅	-4905
稣	-4906
耽	-4907
胁	-4908
蘑	-4909
蹲	-4910
伽	-4911
嘚	-4912
嫂	-4913
峥	-4914
掐	-4915
氓	-4916
爵	-4917
腑	-4918
荏	-4919
菠	-4920
豚	-4921
钮	-4922
锺	-4923
镌	-4924
丐	-4925
俐	-4926
叱	-4927
慎	-4928
汲	-4929
焉	-4930
爪	-4931
稿	-4932
腺	-4933
贷	-4934
赦	-4935
阡	-4936
亘	-4937
咻	-4938
圳	-4939
桩	-4940
楷	-4941
炖	-4942
砾	-4943
虞	-4944
询	-4945
豺	-4946
咔	-4947
噗	-4948
寝	-4949
嵌	-4950
恻	-4951
礴	-4952
糙	-4953
舰	-4954
蔬	-4955
谭	-4956
趋	-4957
雏	-4958
匠	-4959
唵	-4960
怂	-4961
掣	-4962
晏	-4963
榔	-4964
洽	-4965
矗	-4966
秩	-4967
窈	-4968
蝎	-4969
诫	-4970
逊	-4971
遁	-4972
馒	-4973
墅	-4974
屠	-4975
愣	-4976
殆	-4977
禾	-4978
艇	-4979
蛊	-4980
跤	-4981
垣	-4982
擒	-4983
杳	-4984
熠	-4985
猖	-4986
瞌	-4987
矣	-4988
祇	-4989
蔑	-4990
褶	-4991
迦	-4992
逾	-4993
锥	-4994
佔	-4995
剖	-4996
呸	-4997
嚓	-4998
奕	-4999
嵘	-5000
栈	-5001
淤	-5002
煲	-5003
癡	-5004
窕	-5005
箩	-5006
绅	-5007
肴	-5008
荔	-5009
莞	-5010
葩	-5011
蛤	-5012
馋	-5013
僻	-5014
吋	-5015
妮	-5016
姗	-5017
彭	-5018
怔	-5019
榭	-5020
澳	-5021
祂	-5022
秃	-5023
蒿	-5024
薯	-5025
贬	-5026
轴	-5027
髦	-5028
黔	-5029
唛	-5030
婷	-5031
寰	-5032
巳	-5033
恣	-5034
攥	-5035
溯	-5036
稽	-5037
绯	-5038
赣	-5039
靴	-5040
魁	-5041
佐	-5042
啯	-5043
峙	-5044
庐	-5045
忿	-5046
捻	-5047
斧	-5048
涝	-5049
犬	-5050
译	-5051
趾	-5052
蹬	-5053
锯	-5054
馈	-5055
刁	-5056
嚐	-5057
囉	-5058
均	-5059
姚	-5060
帼	-5061
廷	-5062
撮	-5063
斋	-5064
曝	-5065
棂	-5066
琳	-5067
瘩	-5068
皈	-5069
缔	-5070
蛟	-5071
襄	-5072
陉	-5073
陡	-5074
靖	-5075
唾	-5076
瞩	-5077
祁	-5078
衅	-5079
飒	-5080
黱	-5081
仄	-5082
呓	-5083
啖	-5084
噼	-5085
夭	-5086
殒	-5087
毙	-5088
碳	-5089
驹	-5090
鲸	-5091
鹂	-5092
佗	-5093
匪	-5094
吕	-5095
吨	-5096
咎	-5097
姬	-5098
姹	-5099
尕	-5100
岚	-5101
徬	-5102
撸	-5103
盅	-5104
稠	-5105
耿	-5106
萋	-5107
蝠	-5108
蟆	-5109
阜	-5110
馍	-5111
嗳	-5112
嚏	-5113
戮	-5114
栀	-5115
淙	-5116
税	-5117
肪	-5118
荼	-5119
阖	-5120
鲤	-5121
函	-5122
埵	-5123
揍	-5124
牠	-5125
琪	-5126
瑜	-5127
瞓	-5128
窿	-5129
芋	-5130
蝙	-5131
貂	-5132
跷	-5133
韦	-5134
啜	-5135
峭	-5136
授	-5137
晾	-5138
椎	-5139
橇	-5140
沽	-5141
浚	-5142
痣	-5143
筐	-5144
糗	-5145
羲	-5146
菱	-5147
藐	-5148
觞	-5149
闸	-5150
霭	-5151
鹦	-5152
冧	-5153
呷	-5154
哔	-5155
嗷	-5156
嗽	-5157
嚯	-5158
怆	-5159
搔	-5160
潸	-5161
猿	-5162
睭	-5163
窟	-5164
篓	-5165
羚	-5166
茱	-5167
蛹	-5168
贾	-5169
镖	-5170
魏	-5171
佻	-5172
兹	-5173
冢	-5174
剌	-5175
勺	-5176
嵩	-5177
恃	-5178
杠	-5179
桔	-5180
畜	-5181
粤	-5182
荞	-5183
讪	-5184
鹉	-5185
券	-5186
旌	-5187
械	-5188
榄	-5189
橄	-5190
畴	-5191
瘁	-5192
瘫	-5193
翰	-5194
闽	-5195
仃	-5196
仕	-5197
啱	-5198
婶	-5199
巩	-5200
牟	-5201
瑙	-5202
疽	-5203
瞻	-5204
署	-5205
舜	-5206
袸	-5207
褛	-5208
讳	-5209
踹	-5210
雍	-5211
刨	-5212
吙	-5213
唎	-5214
坞	-5215
壑	-5216
挟	-5217
楂	-5218
楠	-5219
浣	-5220
淆	-5221
猩	-5222
驭	-5223
鸢	-5224
麓	-5225
伺	-5226
啄	-5227
嗰	-5228
噎	-5229
泓	-5230
泠	-5231
烹	-5232
础	-5233
秽	-5234
粪	-5235
糜	-5236
肛	-5237
茗	-5238
霏	-5239
颁	-5240
颅	-5241
俄	-5242
匍	-5243
垦	-5244
娲	-5245
嬲	-5246
孜	-5247
挞	-5248
掬	-5249
札	-5250
槛	-5251
槽	-5252
欸	-5253
殉	-5254
泸	-5255
簪	-5256
肾	-5257
芯	-5258
蛐	-5259
裟	-5260
谆	-5261
谴	-5262
踞	-5263
辅	-5264
酪	-5265
麟	-5266
傥	-5267
兀	-5268
兢	-5269
匐	-5270
夯	-5271
忪	-5272
杞	-5273
汶	-5274
琅	-5275
盎	-5276
箴	-5277
纶	-5278
绫	-5279
芊	-5280
蔡	-5281
螂	-5282
袈	-5283
逮	-5284
铲	-5285
锚	-5286
刊	-5287
孬	-5288
恿	-5289
栩	-5290
汕	-5291
灶	-5292
苑	-5293
蓑	-5294
讷	-5295
跺	-5296
踱	-5297
镰	-5298
隋	-5299
颖	-5300
馅	-5301
冯	-5302
坍	-5303
弋	-5304
扳	-5305
抠	-5306
渭	-5307
滟	-5308
漱	-5309
祗	-5310
禽	-5311
篡	-5312
胳	-5313
髻	-5314
亨	-5315
侮	-5316
凸	-5317
囝	-5318
孑	-5319
慾	-5320
昇	-5321
樟	-5322
癌	-5323
癒	-5324
纬	-5325
缨	-5326
藻	-5327
邱	-5328
鑫	-5329
铠	-5330
隽	-5331
仡	-5332
侦	-5333
倜	-5334
叻	-5335
吠	-5336
妍	-5337
彦	-5338
戟	-5339
撰	-5340
擞	-5341
猾	-5342
癞	-5343
眈	-5344
竿	-5345
笋	-5346
筏	-5347
篆	-5348
缪	-5349
蔼	-5350
蛰	-5351
褒	-5352
讬	-5353
诧	-5354
跩	-5355
邓	-5356
钦	-5357
镯	-5358
阐	-5359
靶	-5360
骊	-5361
侩	-5362
嗑	-5363
囱	-5364
埔	-5365
壹	-5366
夥	-5367
彗	-5368
柿	-5369
榆	-5370
矢	-5371
综	-5372
羯	-5373
蓓	-5374
蝼	-5375
遛	-5376
靛	-5377
D	-5378
匀	-5379
囧	-5380
彬	-5381
忱	-5382
惕	-5383
懿	-5384
杉	-5385
渤	-5386
羹	-5387
腩	-5388
舆	-5389
芥	-5390
茸	-5391
蕃	-5392
讥	-5393
跄	-5394
踭	-5395
陲	-5396
雌	-5397
卵	-5398
呎	-5399
嗲	-5400
奎	-5401
彪	-5402
捅	-5403
掴	-5404
揸	-5405
栓	-5406
汴	-5407
泌	-5408
洩	-5409
涮	-5410
潋	-5411
濒	-5412
珈	-5413
癖	-5414
筵	-5415
臊	-5416
蒋	-5417
薛	-5418
蘸	-5419
谍	-5420
赳	-5421
蹙	-5422
蹭	-5423
醯	-5424
冶	-5425
吩	-5426
坂	-5427
坳	-5428
怼	-5429
掳	-5430
摒	-5431
攞	-5432
氤	-5433
痂	-5434
笠	-5435
籽	-5436
粑	-5437
舖	-5438
蛀	-5439
蟑	-5440
蟒	-5441
诛	-5442
踉	-5443
钧	-5444
钵	-5445
镁	-5446
镑	-5447
飕	-5448
伎	-5449
伱	-5450
凿	-5451
卉	-5452
吖	-5453
垄	-5454
墩	-5455
奂	-5456
媲	-5457
嬴	-5458
撷	-5459
枸	-5460
柬	-5461
槌	-5462
氲	-5463
泅	-5464
淬	-5465
熨	-5466
狩	-5467
痪	-5468
粽	-5469
臀	-5470
舐	-5471
螃	-5472
讚	-5473
佯	-5474
剐	-5475
咄	-5476
幢	-5477
悭	-5478
搪	-5479
晌	-5480
棕	-5481
榨	-5482
榻	-5483
狞	-5484
痞	-5485
睿	-5486
砥	-5487
窖	-5488
纲	-5489
聘	-5490
茬	-5491
辕	-5492
遏	-5493
锹	-5494
颐	-5495
饲	-5496
鲨	-5497
J	-5498
凹	-5499
唸	-5500
喱	-5501
嗄	-5502
嗱	-5503
噙	-5504
慑	-5505
抿	-5506
桀	-5507
桅	-5508
梆	-5509
涎	-5510
漉	-5511
狰	-5512
猝	-5513
瞇	-5514
祠	-5515
粟	-5516
缉	-5517
莘	-5518
蔻	-5519
诙	-5520
迺	-5521
镀	-5522
霆	-5523
偈	-5524
匕	-5525
匝	-5526
匣	-5527
厥	-5528
吁	-5529
峪	-5530
帛	-5531
幌	-5532
弈	-5533
悱	-5534
扞	-5535
拇	-5536
擀	-5537
渍	-5538
焗	-5539
玖	-5540
瘟	-5541
砒	-5542
稷	-5543
笳	-5544
蚤	-5545
衾	-5546
谩	-5547
镣	-5548
雯	-5549
馥	-5550
乙	-5551
偃	-5552
剿	-5553
卯	-5554
哞	-5555
唬	-5556
垛	-5557
廖	-5558
弛	-5559
恸	-5560
愕	-5561
掟	-5562
搐	-5563
撂	-5564
昊	-5565
殖	-5566
氹	-5567
洮	-5568
浙	-5569
澹	-5570
犊	-5571
璧	-5572
秉	-5573
筛	-5574
篼	-5575
缄	-5576
葭	-5577
袤	-5578
赊	-5579
蹊	-5580
隅	-5581
馕	-5582
鬃	-5583
鸾	-5584
噘	-5585
埸	-5586
媛	-5587
孰	-5588
崽	-5589
摞	-5590
敝	-5591
犟	-5592
瓯	-5593
禹	-5594
篙	-5595
羨	-5596
翳	-5597
褓	-5598
襁	-5599
阎	-5600
雹	-5601
骡	-5602
鲍	-5603
麒	-5604
佣	-5605
俑	-5606
剁	-5607
吮	-5608
嗮	-5609
坨	-5610
帚	-5611
幄	-5612
恫	-5613
拷	-5614
捌	-5615
撬	-5616
樵	-5617
殃	-5618
毗	-5619
汀	-5620
涣	-5621
猥	-5622
玷	-5623
痍	-5624
碱	-5625
磷	-5626
筶	-5627
罅	-5628
肓	-5629
蒹	-5630
蘼	-5631
蜥	-5632
蟀	-5633
蟋	-5634
谑	-5635
跶	-5636
辘	-5637
迤	-5638
酩	-5639
釜	-5640
镳	-5641
阕	-5642
饨	-5643
馄	-5644
倪	-5645
噫	-5646
圃	-5647
埂	-5648
娉	-5649
孵	-5650
尧	-5651
岐	-5652
嶂	-5653
幔	-5654
弭	-5655
扪	-5656
暸	-5657
枱	-5658
柚	-5659
栅	-5660
梓	-5661
淫	-5662
淼	-5663
渎	-5664
湧	-5665
窘	-5666
笈	-5667
簌	-5668
紊	-5669
綑	-5670
缆	-5671
膳	-5672
芍	-5673
袒	-5674
褐	-5675
褥	-5676
閒	-5677
飓	-5678
饯	-5679
骰	-5680
骼	-5681
鳄	-5682
鳅	-5683
黝	-5684
V	-5685
亵	-5686
偌	-5687
勘	-5688
叁	-5689
唰	-5690
壕	-5691
妾	-5692
姣	-5693
届	-5694
庚	-5695
怛	-5696
憩	-5697
拄	-5698
挎	-5699
楣	-5700
汾	-5701
沓	-5702
濯	-5703
痢	-5704
瘠	-5705
砀	-5706
簧	-5707
菁	-5708
萃	-5709
萱	-5710
蚪	-5711
蚱	-5712
蝌	-5713
裔	-5714
譬	-5715
踫	-5716
蹂	-5717
躏	-5718
邯	-5719
邹	-5720
郸	-5721
酊	-5722
佘	-5723
倡	-5724
咥	-5725
啵	-5726
嘭	-5727
塬	-5728
娄	-5729
娅	-5730
嫖	-5731
屐	-5732
恹	-5733
杵	-5734
橹	-5735
泷	-5736
渥	-5737
滦	-5738
濮	-5739
炷	-5740
犷	-5741
狄	-5742
璐	-5743
皋	-5744
矸	-5745
硷	-5746
碉	-5747
箜	-5748
茏	-5749
菸	-5750
著	-5751
蝈	-5752
蠃	-5753
觥	-5754
诊	-5755
诋	-5756
飚	-5757
骛	-5758
骜	-5759
鸠	-5760
鼾	-5761
龌	-5762
侏	-5763
匾	-5764
哝	-5765
嗖	-5766
嘁	-5767
嚧	-5768
囡	-5769
堑	-5770
奘	-5771
婊	-5772
婿	-5773
寮	-5774
尹	-5775
崀	-5776
庵	-5777
庶	-5778
悌	-5779
戾	-5780
抺	-5781
擘	-5782
昐	-5783
桎	-5784
梏	-5785
沅	-5786
淄	-5787
湍	-5788
瘀	-5789
皖	-5790
皤	-5791
睽	-5792
硅	-5793
碴	-5794
篌	-5795
绉	-5796
罔	-5797
罣	-5798
耙	-5799
舀	-5800
舫	-5801
褂	-5802
跛	-5803
邑	-5804
銮	-5805
钙	-5806
铡	-5807
霁	-5808
龊	-5809
K	-5810
T	-5811
佰	-5812
匮	-5813
叟	-5814
奚	-5815
忒	-5816
恪	-5817
戛	-5818
揖	-5819
旳	-5820
枭	-5821
枰	-5822
棺	-5823
汞	-5824
浃	-5825
淖	-5826
瀛	-5827
焙	-5828
瘴	-5829
皴	-5830
祕	-5831
绛	-5832
舸	-5833
艄	-5834
茜	-5835
袁	-5836
裘	-5837
谄	-5838
谝	-5839
赉	-5840
踽	-5841
蹑	-5842
迩	-5843
郡	-5844
酉	-5845
釉	-5846
饪	-5847
鳍	-5848
麋	-5849
丙	-5850
俞	-5851
俪	-5852
僳	-5853
刎	-5854
呤	-5855
哏	-5856
喟	-5857
嗝	-5858
墀	-5859
娴	-5860
孱	-5861
寅	-5862
峒	-5863
忡	-5864
歼	-5865
泾	-5866
潢	-5867
犒	-5868
玑	-5869
町	-5870
皙	-5871
睑	-5872
砣	-5873
磬	-5874
糠	-5875
糯	-5876
罂	-5877
罄	-5878
羿	-5879
胯	-5880
臆	-5881
藩	-5882
蚓	-5883
蚯	-5884
蜉	-5885
蜴	-5886
蟾	-5887
蠕	-5888
裱	-5889
褔	-5890
诬	-5891
豉	-5892
阀	-5893
隍	-5894
隘	-5895
韬	-5896
鹄	-5897
俳	-5898
倭	-5899
凊	-5900
勐	-5901
咭	-5902
唞	-5903
啧	-5904
啫	-5905
喑	-5906
噌	-5907
埕	-5908
墬	-5909
婢	-5910
崆	-5911
帧	-5912
怙	-5913
惴	-5914
撵	-5915
暱	-5916
柑	-5917
歃	-5918
汩	-5919
澧	-5920
灸	-5921
煜	-5922
牦	-5923
矶	-5924
硒	-5925
祀	-5926
箕	-5927
绥	-5928
缇	-5929
聒	-5930
聼	-5931
舛	-5932
蔗	-5933
袮	-5934
诣	-5935
谙	-5936
蹿	-5937
軚	-5938
迄	-5939
逦	-5940
雇	-5941
颔	-5942
餸	-5943
骥	-5944
鸵	-5945
鹜	-5946
鹧	-5947
伉	-5948
卤	-5949
厩	-5950
呖	-5951
咂	-5952
咴	-5953
噏	-5954
噱	-5955
囍	-5956
埠	-5957
堰	-5958
婕	-5959
孪	-5960
崂	-5961
弩	-5962
抨	-5963
抻	-5964
掸	-5965
摰	-5966
杷	-5967
枇	-5968
榈	-5969
檫	-5970
殓	-5971
殴	-5972
氾	-5973
泗	-5974
淝	-5975
湄	-5976
炯	-5977
焱	-5978
爰	-5979
牒	-5980
璇	-5981
畸	-5982
盹	-5983
睨	-5984
竺	-5985
绡	-5986
脐	-5987
舷	-5988
苯	-5989
茨	-5990
萸	-5991
蓖	-5992
証	-5993
谯	-5994
跻	-5995
踵	-5996
辄	-5997
辐	-5998
逑	-5999
郤	-6000
酚	-6001
鍊	-6002
钹	-6003
闵	-6004
韭	-6005
饴	-6006
骁	-6007
骝	-6008
鸪	-6009
龚	-6010
C	-6011
俨	-6012
倖	-6013
僦	-6014
刽	-6015
匈	-6016
呲	-6017
呾	-6018
咣	-6019
嚒	-6020
坯	-6021
嫲	-6022
岑	-6023
岱	-6024
崴	-6025
悖	-6026
戆	-6027
扈	-6028
揩	-6029
敕	-6030
斐	-6031
斡	-6032
枢	-6033
毓	-6034
汨	-6035
浒	-6036
烩	-6037
爿	-6038
犄	-6039
畀	-6040
瘪	-6041
瞋	-6042
砝	-6043
禀	-6044
翌	-6045
耷	-6046
肇	-6047
臃	-6048
芹	-6049
荟	-6050
蓼	-6051
藜	-6052
蝣	-6053
蟠	-6054
衢	-6055
觊	-6056
觎	-6057
豌	-6058
踝	-6059
蹩	-6060
邵	-6061
鄱	-6062
钎	-6063
闩	-6064
魉	-6065
魍	-6066
鳌	-6067
仨	-6068
倌	-6069
傣	-6070
僚	-6071
吇	-6072
吏	-6073
呌	-6074
咝	-6075
咡	-6076
唳	-6077
啋	-6078
囤	-6079
圩	-6080
妓	-6081
孖	-6082
岌	-6083
峁	-6084
巽	-6085
巿	-6086
幂	-6087
庾	-6088
悚	-6089
戍	-6090
抯	-6091
抰	-6092
捲	-6093
搽	-6094
攰	-6095
晤	-6096
椤	-6097
毽	-6098
滢	-6099
狙	-6100
璞	-6101
矬	-6102
砻	-6103
祉	-6104
祛	-6105
秸	-6106
糍	-6107
纾	-6108
羸	-6109
翎	-6110
腌	-6111
臻	-6112
茯	-6113
荬	-6114
葆	-6115
蔺	-6116
蕲	-6117
蚌	-6118
螳	-6119
裆	-6120
诏	-6121
诩	-6122
谀	-6123
谒	-6124
谤	-6125
豢	-6126
跂	-6127
踎	-6128
邢	-6129
酋	-6130
镂	-6131
闫	-6132
闰	-6133
阇	-6134
颉	-6135
饽	-6136
馔	-6137
魑	-6138
鲛	-6139
丞	-6140
亳	-6141
仞	-6142
侄	-6143
侨	-6144
俬	-6145
倥	-6146
冗	-6147
叵	-6148
吺	-6149
墘	-6150
墚	-6151
孺	-6152
岷	-6153
嵋	-6154
拮	-6155
挛	-6156
掹	-6157
掼	-6158
旬	-6159
杈	-6160
柘	-6161
栉	-6162
棹	-6163
椿	-6164
楫	-6165
楹	-6166
欉	-6167
涙	-6168
湎	-6169
溷	-6170
滹	-6171
潍	-6172
灞	-6173
炝	-6174
煊	-6175
熹	-6176
玺	-6177
痺	-6178
秣	-6179
紮	-6180
绾	-6181
罡	-6182
腴	-6183
膘	-6184
臧	-6185
芷	-6186
茭	-6187
蠍	-6188
衙	-6189
衩	-6190
衿	-6191
裴	-6192
褴	-6193
讴	-6194
谏	-6195
贮	-6196
贿	-6197
踟	-6198
蹁	-6199
蹰	-6200
轱	-6201
遽	-6202
邈	-6203
酹	-6204
醍	-6205
锲	-6206
饵	-6207
馊	-6208
骷	-6209
髅	-6210
髯	-6211
鲽	-6212
鹣	-6213
黒	-6214
G	-6215
M	-6216
佃	-6217
佤	-6218
凇	-6219
剽	-6220
卟	-6221
咨	-6222
啕	-6223
嘤	-6224
嘥	-6225
嚜	-6226
囗	-6227
妁	-6228
媄	-6229
嫫	-6230
宪	-6231
屝	-6232
岀	-6233
峇	-6234
廻	-6235
怄	-6236
悽	-6237
抟	-6238
摁	-6239
斌	-6240
暨	-6241
杼	-6242
柒	-6243
栾	-6244
桓	-6245
棣	-6246
楝	-6247
樊	-6248
樯	-6249
櫈	-6250
歎	-6251
殁	-6252
氆	-6253
氇	-6254
汛	-6255
沆	-6256
泵	-6257
洄	-6258
浔	-6259
滇	-6260
濠	-6261
煳	-6262
燻	-6263
狒	-6264
琦	-6265
盱	-6266
眊	-6267
眙	-6268
砵	-6269
硫	-6270
碜	-6271
祐	-6272
禳	-6273
筜	-6274
筼	-6275
箔	-6276
篑	-6277
簷	-6278
纭	-6279
绦	-6280
耨	-6281
胄	-6282
胛	-6283
舂	-6284
芰	-6285
茎	-6286
茴	-6287
荀	-6288
荻	-6289
莆	-6290
菏	-6291
薅	-6292
蝪	-6293
袢	-6294
覆	-6295
诿	-6296
谗	-6297
谲	-6298
豇	-6299
豔	-6300
赈	-6301
赡	-6302
趺	-6303
踊	-6304
轧	-6305
釆	-6306
钳	-6307
铉	-6308
镢	-6309
镫	-6310
闱	-6311
阉	-6312
餫	-6313
驷	-6314
骞	-6315
鱿	-6316
黙	-6317
龛	-6318
B	-6319
丗	-6320
亥	-6321
仟	-6322
伢	-6323
伧	-6324
倏	-6325
倨	-6326
偬	-6327
冼	-6328
凴	-6329
咶	-6330
哐	-6331
哧	-6332
啉	-6333
嗵	-6334
嗻	-6335
噤	-6336
囔	-6337
囵	-6338
夔	-6339
娒	-6340
嬿	-6341
孃	-6342
尉	-6343
岿	-6344
峋	-6345
峯	-6346
崁	-6347
嶙	-6348
幪	-6349
怵	-6350
悻	-6351
惗	-6352
戯	-6353
抆	-6354
挢	-6355
揄	-6356
搥	-6357
撃	-6358
斛	-6359
旃	-6360
曜	-6361
朕	-6362
桉	-6363
桫	-6364
楔	-6365
槎	-6366
槿	-6367
毎	-6368
沪	-6369
洌	-6370
溆	-6371
漈	-6372
焖	-6373
煨	-6374
犠	-6375
狷	-6376
猗	-6377
瑾	-6378
瓮	-6379
痰	-6380
皿	-6381
瞟	-6382
砧	-6383
砲	-6384
硪	-6385
祙	-6386
箂	-6387
箃	-6388
箇	-6389
胚	-6390
茕	-6391
莅	-6392
菡	-6393
菽	-6394
萏	-6395
萼	-6396
蕙	-6397
藓	-6398
蚣	-6399
蛎	-6400
蜈	-6401
蜢	-6402
衲	-6403
觑	-6404
诌	-6405
诘	-6406
谶	-6407
趐	-6408
趸	-6409
踯	-6410
躅	-6411
轶	-6412
辖	-6413
邙	-6414
邛	-6415
酗	-6416
醐	-6417
铝	-6418
铤	-6419
镬	-6420
阆	-6421
餍	-6422
驸	-6423
鬟	-6424
鲵	-6425
鵰	-6426
鸨	-6427
鸶	-6428
黍	-6429
黐	-6430
黠	-6431
佉	-6432
佝	-6433
侪	-6434
傩	-6435
凼	-6436
勖	-6437
募	-6438
呣	-6439
哙	-6440
喁	-6441
嗥	-6442
嚡	-6443
囥	-6444
囫	-6445
囹	-6446
圄	-6447
坻	-6448
垆	-6449
垓	-6450
堇	-6451
塭	-6452
妲	-6453
嫐	-6454
嬗	-6455
孭	-6456
宦	-6457
尥	-6458
岙	-6459
岫	-6460
嵬	-6461
嶷	-6462
廋	-6463
忖	-6464
惝	-6465
愐	-6466
戗	-6467
抡	-6468
掇	-6469
掖	-6470
掮	-6471
揹	-6472
摭	-6473
旮	-6474
晗	-6475
暹	-6476
杲	-6477
柩	-6478
桷	-6479
椭	-6480
椽	-6481
樑	-6482
殡	-6483
毌	-6484
氯	-6485
泇	-6486
泫	-6487
涔	-6488
渚	-6489
滓	-6490
滕	-6491
澍	-6492
炔	-6493
煸	-6494
燄	-6495
犛	-6496
犸	-6497
狍	-6498
獒	-6499
玮	-6500
珞	-6501
琰	-6502
甦	-6503
甬	-6504
畲	-6505
痲	-6506
瘸	-6507
眬	-6508
瞠	-6509
碇	-6510
碣	-6511
筠	-6512
筲	-6513
簟	-6514
糌	-6515
糢	-6516
纡	-6517
纫	-6518
纰	-6519
绺	-6520
缙	-6521
胺	-6522
臾	-6523
舶	-6524
苓	-6525
苴	-6526
荇	-6527
莪	-6528
莳	-6529
蔢	-6530
蔫	-6531
蕨	-6532
蚩	-6533
蛆	-6534
蛔	-6535
蝗	-6536
蠡	-6537
衪	-6538
衮	-6539
裾	-6540
觐	-6541
詹	-6542
讣	-6543
讧	-6544
讹	-6545
讼	-6546
诟	-6547
豕	-6548
跆	-6549
蹴	-6550
蹶	-6551
轲	-6552
轼	-6553
逄	-6554
邳	-6555
郞	-6556
郪	-6557
鈬	-6558
鏖	-6559
钏	-6560
钜	-6561
钠	-6562
钰	-6563
锉	-6564
锷	-6565
镗	-6566
靿	-6567
餵	-6568
饸	-6569
馐	-6570
馗	-6571
鳜	-6572
麝	-6573
龋	-6574
(	-6575
A	-6576
仺	-6577
仼	-6578
伲	-6579
佞	-6580
佪	-6581
佮	-6582
偻	-6583
傱	-6584
兊	-6585
冚	-6586
剜	-6587
勳	-6588
吚	-6589
吿	-6590
呙	-6591
哌	-6592
哕	-6593
哵	-6594
唁	-6595
唶	-6596
啁	-6597
啍	-6598
啐	-6599
喆	-6600
喙	-6601
嗣	-6602
嘬	-6603
嚩	-6604
垅	-6605
埊	-6606
堀	-6607
壬	-6608
妺	-6609
娋	-6610
娩	-6611
娼	-6612
婺	-6613
嫰	-6614
宥	-6615
宸	-6616
尢	-6617
尪	-6618
岇	-6619
帏	-6620
帔	-6621
廪	-6622
弑	-6623
徳	-6624
怃	-6625
愆	-6626
愠	-6627
慉	-6628
戊	-6629
戌	-6630
戥	-6631
戦	-6632
抔	-6633
挲	-6634
捋	-6635
捽	-6636
揶	-6637
揺	-6638
搧	-6639
摷	-6640
摽	-6641
擸	-6642
攸	-6643
旯	-6644
昱	-6645
晷	-6646
暪	-6647
曷	-6648
朿	-6649
杪	-6650
栊	-6651
桢	-6652
梿	-6653
楮	-6654
榷	-6655
様	-6656
櫆	-6657
氽	-6658
沊	-6659
沔	-6660
沬	-6661
洹	-6662
浜	-6663
浠	-6664
涷	-6665
淸	-6666
湟	-6667
溼	-6668
滁	-6669
滏	-6670
漕	-6671
漳	-6672
潼	-6673
炆	-6674
炜	-6675
炳	-6676
烚	-6677
焜	-6678
煅	-6679
熳	-6680
燔	-6681
爻	-6682
牍	-6683
猕	-6684
獗	-6685
玡	-6686
珙	-6687
琊	-6688
瑯	-6689
瓠	-6690
畈	-6691
畚	-6692
疋	-6693
痦	-6694
眛	-6695
睥	-6696
祼	-6697
秆	-6698
秏	-6699
稔	-6700
穑	-6701
竽	-6702
筚	-6703
箸	-6704
籴	-6705
粯	-6706
絃	-6707
縻	-6708
繑	-6709
绶	-6710
缦	-6711
缫	-6712
缶	-6713
翕	-6714
耄	-6715
耆	-6716
耋	-6717
耒	-6718
聂	-6719
肘	-6720
脍	-6721
脯	-6722
腄	-6723
腚	-6724
膞	-6725
膺	-6726
舨	-6727
艨	-6728
芈	-6729
芮	-6730
茆	-6731
荃	-6732
荚	-6733
莂	-6734
莜	-6735
莼	-6736
葳	-6737
蓥	-6738
薲	-6739
虬	-6740
螟	-6741
裇	-6742
讫	-6743
诳	-6744
诽	-6745
谟	-6746
谪	-6747
赂	-6748
赃	-6749
赧	-6750
赭	-6751
跣	-6752
踼	-6753
蹍	-6754
轪	-6755
辍	-6756
逶	-6757
遑	-6758
邨	-6759
郝	-6760
釭	-6761
鉄	-6762
铎	-6763
铢	-6764
铰	-6765
锃	-6766
锏	-6767
锗	-6768
隹	-6769
雎	-6770
雩	-6771
霑	-6772
靰	-6773
鞡	-6774
顼	-6775
飨	-6776
饷	-6777
驽	-6778
髪	-6779
鲚	-6780
鲠	-6781
鲲	-6782
鳃	-6783
鸩	-6784
鹌	-6785
鹑	-6786
鹞	-6787
鹫	-6788
鹳	-6789
麾	-6790
龃	-6791
龉	-6792
"	-6793
F	-6794
I	-6795
N	-6796
丕	-6797
両	-6798
丶	-6799
丿	-6800
亍	-6801
亣	-6802
亱	-6803
亸	-6804
佶	-6805
佼	-6806
佾	-6807
侑	-6808
俚	-6809
俴	-6810
俸	-6811
倬	-6812
偲	-6813
傫	-6814
僮	-6815
僾	-6816
兖	-6817
冑	-6818
冭	-6819
劄	-6820
劬	-6821
匜	-6822
卞	-6823
吥	-6824
吰	-6825
呅	-6826
呮	-6827
呯	-6828
呿	-6829
咇	-6830
唑	-6831
啿	-6832
喈	-6833
喏	-6834
喕	-6835
喨	-6836
嗾	-6837
嘠	-6838
嚤	-6839
囖	-6840
囘	-6841
囬	-6842
囿	-6843
圭	-6844
圮	-6845
垟	-6846
垭	-6847
埗	-6848
埙	-6849
埜	-6850
埽	-6851
堋	-6852
堞	-6853
塡	-6854
夃	-6855
夤	-6856
奀	-6857
奁	-6858
妤	-6859
妪	-6860
姫	-6861
姮	-6862
媞	-6863
嫱	-6864
嬛	-6865
嬮	-6866
寳	-6867
峄	-6868
崮	-6869
嶍	-6870
嶶	-6871
帎	-6872
幐	-6873
庝	-6874
廒	-6875
弆	-6876
彳	-6877
徇	-6878
徕	-6879
忟	-6880
忤	-6881
怇	-6882
怋	-6883
怣	-6884
怫	-6885
怱	-6886
怹	-6887
恓	-6888
恺	-6889
恾	-6890
悃	-6891
悒	-6892
悕	-6893
悝	-6894
悪	-6895
慬	-6896
憷	-6897
懑	-6898
懮	-6899
扄	-6900
扙	-6901
扦	-6902
扺	-6903
抦	-6904
抳	-6905
挰	-6906
挻	-6907
掤	-6908
揗	-6909
揼	-6910
搣	-6911
撜	-6912
擉	-6913
攽	-6914
敎	-6915
敤	-6916
敨	-6917
旸	-6918
昕	-6919
晀	-6920
晩	-6921
暍	-6922
曚	-6923
曽	-6924
枒	-6925
枥	-6926
柰	-6927
栃	-6928
栆	-6929
桕	-6930
桡	-6931
桧	-6932
楸	-6933
榖	-6934
槊	-6935
槲	-6936
槴	-6937
檎	-6938
櫺	-6939
欻	-6940
歩	-6941
殄	-6942
殍	-6943
氐	-6944
氘	-6945
氟	-6946
氮	-6947
汫	-6948
沚	-6949
沤	-6950
沩	-6951
泮	-6952
泿	-6953
洇	-6954
洈	-6955
洙	-6956
浄	-6957
涿	-6958
淍	-6959
渌	-6960
渏	-6961
湫	-6962
湲	-6963
溧	-6964
漧	-6965
潆	-6966
潵	-6967
潽	-6968
濂	-6969
灏	-6970
炅	-6971
烔	-6972
烱	-6973
焐	-6974
焯	-6975
燧	-6976
燿	-6977
爨	-6978
牓	-6979
牯	-6980
牶	-6981
獭	-6982
玹	-6983
珐	-6984
琛	-6985
琞	-6986
琭	-6987
琲	-6988
璜	-6989
甄	-6990
甯	-6991
畿	-6992
疴	-6993
痔	-6994
痟	-6995
痱	-6996
痿	-6997
瘙	-6998
盥	-6999
眏	-7000
睚	-7001
睢	-7002
瞢	-7003
瞿	-7004
矍	-7005
砑	-7006
碘	-7007
碛	-7008
碮	-7009
碲	-7010
磔	-7011
磞	-7012
祯	-7013
祺	-7014
禺	-7015
窠	-7016
笞	-7017
筱	-7018
筸	-7019
箓	-7020
篁	-7021
籤	-7022
粿	-7023
糬	-7024
絪	-7025
縂	-7026
纛	-7027
纨	-7028
绐	-7029
绗	-7030
缁	-7031
缜	-7032
翙	-7033
翛	-7034
翥	-7035
翺	-7036
耦	-7037
聿	-7038
肱	-7039
胝	-7040
胥	-7041
胴	-7042
脓	-7043
舢	-7044
艌	-7045
艶	-7046
芩	-7047
芪	-7048
苜	-7049
苤	-7050
苿	-7051
茼	-7052
荁	-7053
荑	-7054
荜	-7055
荠	-7056
莚	-7057
莴	-7058
菓	-7059
菘	-7060
菰	-7061
萁	-7062
葺	-7063
蒌	-7064
蒟	-7065
蒻	-7066
蓁	-7067
蓆	-7068
蓿	-7069
蔘	-7070
蔴	-7071
蔸	-7072
蕖	-7073
薫	-7074
蘘	-7075
蘠	-7076
蚍	-7077
蚵	-7078
蛳	-7079
蜇	-7080
蜍	-7081
螨	-7082
蠹	-7083
袐	-7084
袛	-7085
褃	-7086
覃	-7087
觜	-7088
訚	-7089
訾	-7090
誊	-7091
謇	-7092
诜	-7093
诤	-7094
谇	-7095
谔	-7096
谰	-7097
賨	-7098
贲	-7099
贻	-7100
赱	-7101
赿	-7102
趄	-7103
趔	-7104
趵	-7105
跏	-7106
跫	-7107
踛	-7108
踣	-7109
踧	-7110
踰	-7111
蹀	-7112
蹧	-7113
躜	-7114
躝	-7115
躞	-7116
轇	-7117
轕	-7118
辇	-7119
辚	-7120
迥	-7121
迿	-7122
逈	-7123
逺	-7124
遄	-7125
遘	-7126
遝	-7127
邉	-7128
邸	-7129
酔	-7130
酡	-7131
酮	-7132
醢	-7133
醪	-7134
醴	-7135
醵	-7136
鈡	-7137
鉎	-7138
銭	-7139
钖	-7140
钛	-7141
钨	-7142
钿	-7143
铄	-7144
铆	-7145
铞	-7146
铩	-7147
锌	-7148
锨	-7149
锰	-7150
锴	-7151
锶	-7152
镍	-7153
镐	-7154
閳	-7155
闢	-7156
闾	-7157
陂	-7158
隈	-7159
隠	-7160
隰	-7161
雉	-7162
鞅	-7163
鞑	-7164
鞯	-7165
颍	-7166
颚	-7167
颛	-7168
颢	-7169
飃	-7170
飊	-7171
飏	-7172
餮	-7173
饕	-7174
饦	-7175
饹	-7176
馏	-7177
馓	-7178
骓	-7179
髫	-7180
鬂	-7181
鬈	-7182
鲑	-7183
鲫	-7184
鳗	-7185
鳝	-7186
鸬	-7187
鹗	-7188
鹚	-7189
黡	-7190
黥	-7191
鼟	-7192
龅	-7193
龇	-7194
龈	-7195
P	-7196
U	-7197
W	-7198
ñ	-7199
丄	-7200
丒	-7201
乗	-7202
乩	-7203
乸	-7204
亁	-7205
亇	-7206
亟	-7207
亯	-7208
亾	-7209
仳	-7210
伈	-7211
伋	-7212
伕	-7213
伿	-7214
佒	-7215
佖	-7216
余	-7217
佟	-7218
佷	-7219
侒	-7220
侷	-7221
俎	-7222
俵	-7223
倂	-7224
倞	-7225
値	-7226
倮	-7227
倷	-7228
倻	-7229
偟	-7230
偠	-7231
偳	-7232
僭	-7233
僰	-7234
儆	-7235
兕	-7236
兲	-7237
兿	-7238
冁	-7239
冏	-7240
冐	-7241
凐	-7242
凖	-7243
凬	-7244
刈	-7245
刧	-7246
剉	-7247
剷	-7248
剹	-7249
勠	-7250
勰	-7251
匏	-7252
卬	-7253
卮	-7254
卺	-7255
厈	-7256
厓	-7257
厖	-7258
厗	-7259
叿	-7260
吡	-7261
吣	-7262
咵	-7263
咾	-7264
哣	-7265
哰	-7266
哿	-7267
唖	-7268
唦	-7269
唼	-7270
唿	-7271
啩	-7272
啮	-7273
喞	-7274
喥	-7275
喫	-7276
喯	-7277
喹	-7278
喾	-7279
嗕	-7280
嗤	-7281
嗫	-7282
嘙	-7283
嘪	-7284
噃	-7285
噉	-7286
噑	-7287
嚅	-7288
嚘	-7289
嚿	-7290
囨	-7291
囯	-7292
圏	-7293
圜	-7294
圱	-7295
圹	-7296
坜	-7297
垖	-7298
垩	-7299
垸	-7300
埤	-7301
埯	-7302
埲	-7303
埿	-7304
堙	-7305
堺	-7306
塲	-7307
塴	-7308
塾	-7309
墉	-7310
増	-7311
墯	-7312
壸	-7313
夬	-7314
夲	-7315
夿	-7316
奓	-7317
奿	-7318
妊	-7319
妯	-7320
姒	-7321
姪	-7322
姸	-7323
姽	-7324
娈	-7325
娌	-7326
娣	-7327
娷	-7328
婣	-7329
婳	-7330
媟	-7331
媠	-7332
媾	-7333
嫒	-7334
嫘	-7335
嬅	-7336
孄	-7337
孚	-7338
孠	-7339
孡	-7340
宆	-7341
宨	-7342
寖	-7343
寘	-7344
対	-7345
尓	-7346
尜	-7347
尣	-7348
屄	-7349
屘	-7350
屙	-7351
屺	-7352
岘	-7353
岜	-7354
岬	-7355
岵	-7356
岼	-7357
岽	-7358
崕	-7359
崧	-7360
崾	-7361
嵇	-7362
嵯	-7363
嵹	-7364
嶏	-7365
巉	-7366
幛	-7367
庛	-7368
廛	-7369
弼	-7370
弾	-7371
彧	-7372
忄	-7373
忞	-7374
忸	-7375
忾	-7376
怩	-7377
恀	-7378
恇	-7379
恵	-7380
悇	-7381
惏	-7382
惓	-7383
惿	-7384
愀	-7385
愎	-7386
愝	-7387
愦	-7388
愳	-7389
慒	-7390
慓	-7391
憪	-7392
憭	-7393
懡	-7394
戽	-7395
扃	-7396
扌	-7397
扽	-7398
抎	-7399
抣	-7400
抷	-7401
拊	-7402
拵	-7403
挈	-7404
挘	-7405
捀	-7406
捩	-7407
捯	-7408
揆	-7409
揑	-7410
揿	-7411
搇	-7412
搕	-7413
搾	-7414
摋	-7415
摙	-7416
摥	-7417
摮	-7418
撀	-7419
撦	-7420
撺	-7421
擖	-7422
擗	-7423
擡	-7424
擢	-7425
擤	-7426
擩	-7427
攃	-7428
攠	-7429
斎	-7430
旄	-7431
旆	-7432
旡	-7433
昃	-7434
昄	-7435
昅	-7436
昉	-7437
昰	-7438
晈	-7439
晔	-7440
晞	-7441
晡	-7442
晢	-7443
晥	-7444
晬	-7445
暌	-7446
暡	-7447
暼	-7448
暾	-7449
朁	-7450
朅	-7451
朌	-7452
杓	-7453
杻	-7454
枓	-7455
枧	-7456
柀	-7457
柞	-7458
柢	-7459
柤	-7460
柪	-7461
柺	-7462
栌	-7463
栢	-7464
栿	-7465
桄	-7466
桴	-7467
梼	-7468
椌	-7469
椐	-7470
椦	-7471
椪	-7472
椴	-7473
楽	-7474
榉	-7475
榚	-7476
榧	-7477
槡	-7478
槭	-7479
橐	-7480
橕	-7481
檑	-7482
檠	-7483
檩	-7484
櫮	-7485
欐	-7486
欷	-7487
欹	-7488
歆	-7489
歕	-7490
歛	-7491
歜	-7492
歾	-7493
殚	-7494
毘	-7495
氊	-7496
氪	-7497
汊	-7498
汜	-7499
沕	-7500
沣	-7501
沨	-7502
沴	-7503
沷	-7504
泔	-7505
洎	-7506
洣	-7507
洳	-7508
洷	-7509
洸	-7510
洺	-7511
浈	-7512
浉	-7513
浍	-7514
浥	-7515
涘	-7516
涪	-7517
涶	-7518
渇	-7519
渓	-7520
湝	-7521
溱	-7522
滙	-7523
滠	-7524
滳	-7525
漄	-7526
漷	-7527
潏	-7528
潞	-7529
潟	-7530
潶	-7531
澔	-7532
澘	-7533
澺	-7534
濑	-7535
炁	-7536
炓	-7537
炧	-7538
炪	-7539
炿	-7540
烀	-7541
烝	-7542
烨	-7543
烯	-7544
焿	-7545
煻	-7546
熣	-7547
燋	-7548
燮	-7549
爇	-7550
爤	-7551
爯	-7552
牚	-7553
犂	-7554
犍	-7555
狃	-7556
狅	-7557
狦	-7558
狿	-7559
獐	-7560
獠	-7561
獣	-7562
玥	-7563
珂	-7564
珓	-7565
珣	-7566
珮	-7567
珰	-7568
琤	-7569
琮	-7570
瑀	-7571
瑗	-7572
瑛	-7573
瑝	-7574
瑭	-7575
璋	-7576
璎	-7577
璓	-7578
瓴	-7579
瓹	-7580
甕	-7581
疃	-7582
疍	-7583
疕	-7584
疝	-7585
疡	-7586
疹	-7587
疻	-7588
痏	-7589
痨	-7590
痳	-7591
瘌	-7592
瘢	-7593
癈	-7594
癔	-7595
癸	-7596
皲	-7597
皾	-7598
盻	-7599
眀	-7600
眇	-7601
眍	-7602
眞	-7603
眳	-7604
眻	-7605
眿	-7606
睆	-7607
睌	-7608
瞉	-7609
瞙	-7610
矅	-7611
矽	-7612
砉	-7613
砫	-7614
砭	-7615
砼	-7616
硊	-7617
硌	-7618
硐	-7619
硖	-7620
硭	-7621
硾	-7622
碓	-7623
磓	-7624
磗	-7625
磙	-7626
礅	-7627
礸	-7628
祆	-7629
禊	-7630
秝	-7631
秾	-7632
稗	-7633
稥	-7634
穂	-7635
穏	-7636
窂	-7637
窣	-7638
窨	-7639
窳	-7640
窸	-7641
竣	-7642
竦	-7643
竸	-7644
笕	-7645
笜	-7646
笤	-7647
笪	-7648
笸	-7649
笻	-7650
筊	-7651
箁	-7652
箐	-7653
篦	-7654
篾	-7655
簖	-7656
簜	-7657
簼	-7658
籣	-7659
籼	-7660
粄	-7661
粝	-7662
粢	-7663
糅	-7664
紥	-7665
緃	-7666
緉	-7667
緌	-7668
緾	-7669
縠	-7670
纂	-7671
纒	-7672
绀	-7673
绔	-7674
缢	-7675
缮	-7676
缯	-7677
缷	-7678
罍	-7679
罹	-7680
翀	-7681
翗	-7682
翟	-7683
翦	-7684
耔	-7685
耠	-7686
耧	-7687
耹	-7688
聃	-7689
聩	-7690
聱	-7691
肽	-7692
胇	-7693
胤	-7694
胫	-7695
胱	-7696
脇	-7697
脣	-7698
腧	-7699
膫	-7700
膻	-7701
臓	-7702
臦	-7703
舄	-7704
舴	-7705
艋	-7706
艟	-7707
艮	-7708
艹	-7709
芗	-7710
芘	-7711
芡	-7712
芧	-7713
芴	-7714
芺	-7715
芾	-7716
芿	-7717
苁	-7718
苈	-7719
苌	-7720
苣	-7721
茌	-7722
茔	-7723
茷	-7724
茺	-7725
荖	-7726
荦	-7727
荩	-7728
荭	-7729
莈	-7730
莠	-7731
莨	-7732
莸	-7733
菀	-7734
菅	-7735
菻	-7736
萛	-7737
葇	-7738
蒐	-7739
蓏	-7740
蓠	-7741
蓰	-7742
蔟	-7743
蕈	-7744
蕌	-7745
蕞	-7746
蕡	-7747
蕤	-7748
蕸	-7749
薑	-7750
薕	-7751
薹	-7752
藉	-7753
藿	-7754
蘙	-7755
蘩	-7756
虍	-7757
虢	-7758
蚖	-7759
蚝	-7760
蚧	-7761
蚬	-7762
蚼	-7763
蛦	-7764
蛩	-7765
蛱	-7766
蜊	-7767
蜮	-7768
蝨	-7769
蝮	-7770
蝻	-7771
螁	-7772
螚	-7773
螣	-7774
螫	-7775
螭	-7776
蟊	-7777
蟥	-7778
蟷	-7779
蠋	-7780
蠔	-7781
蠠	-7782
蠲	-7783
衴	-7784
袓	-7785
袷	-7786
裉	-7787
裢	-7788
裰	-7789
褚	-7790
褟	-7791
褢	-7792
褫	-7793
褰	-7794
褵	-7795
襌	-7796
覂	-7797
覚	-7798
觚	-7799
觫	-7800
觭	-7801
觳	-7802
訇	-7803
訫	-7804
訰	-7805
詄	-7806
詈	-7807
誔	-7808
諠	-7809
譁	-7810
譟	-7811
譲	-7812
诓	-7813
诰	-7814
谌	-7815
谕	-7816
谘	-7817
谚	-7818
谡	-7819
谳	-7820
谵	-7821
豸	-7822
貔	-7823
賖	-7824
贶	-7825
赁	-7826
赅	-7827
赆	-7828
赍	-7829
赟	-7830
趒	-7831
趖	-7832
趯	-7833
趿	-7834
跈	-7835
跗	-7836
跘	-7837
跞	-7838
跢	-7839
跦	-7840
跬	-7841
踄	-7842
踅	-7843
踍	-7844
踬	-7845
踺	-7846
蹇	-7847
蹓	-7848
蹚	-7849
蹹	-7850
蹼	-7851
躱	-7852
轘	-7853
辔	-7854
迆	-7855
迓	-7856
迳	-7857
逵	-7858
遒	-7859
遶	-7860
邕	-7861
邗	-7862
邬	-7863
邭	-7864
邺	-7865
郇	-7866
郏	-7867
郓	-7868
郢	-7869
郷	-7870
鄣	-7871
酎	-7872
酖	-7873
酢	-7874
酦	-7875
酲	-7876
酴	-7877
酾	-7878
醁	-7879
醑	-7880
醚	-7881
醮	-7882
醽	-7883
醾	-7884
鎅	-7885
鎏	-7886
鎗	-7887
鏊	-7888
鏠	-7889
鏦	-7890
鐏	-7891
鑑	-7892
鑚	-7893
钒	-7894
钤	-7895
钪	-7896
钼	-7897
钾	-7898
铂	-7899
铌	-7900
铍	-7901
铣	-7902
铧	-7903
铨	-7904
铬	-7905
铳	-7906
铹	-7907
锂	-7908
锇	-7909
锒	-7910
锔	-7911
锝	-7912
锩	-7913
镏	-7914
镒	-7915
镙	-7916
镚	-7917
镪	-7918
镱	-7919
閙	-7920
閞	-7921
閦	-7922
闇	-7923
闘	-7924
闶	-7925
闼	-7926
阈	-7927
阚	-7928
阢	-7929
隼	-7930
雒	-7931
雚	-7932
霨	-7933
霰	-7934
靣	-7935
鞞	-7936
鞮	-7937
韫	-7938
韾	-7939
顸	-7940
颌	-7941
飑	-7942
飗	-7943
饩	-7944
饬	-7945
馑	-7946
駉	-7947
騄	-7948
騺	-7949
骅	-7950
骘	-7951
骟	-7952
骧	-7953
骴	-7954
骹	-7955
髀	-7956
髑	-7957
鬒	-7958
鬘	-7959
鬨	-7960
鬻	-7961
魈	-7962
鯭	-7963
鰦	-7964
鰴	-7965
鱓	-7966
鱲	-7967
鲅	-7968
鲋	-7969
鲔	-7970
鲟	-7971
鲶	-7972
鲷	-7973
鳓	-7974
鴗	-7975
鴥	-7976
鸸	-7977
鹈	-7978
鹋	-7979
鹕	-7980
鹪	-7981
鹮	-7982
鹾	-7983
麈	-7984
麴	-7985
黉	-7986
黢	-7987
黧	-7988
鼙	-7989
鼹	-7990
齁	-7991
龠	-7992
